{
  "version": "1.0",
  "truncation": null,
  "padding": null,
  "added_tokens": [
    {
      "id": 0,
      "content": "[UNK]",
      "single_word": false,
      "lstrip": false,
      "rstrip": false,
      "normalized": false,
      "special": true
    },
    {
      "id": 1,
      "content": "[PAD]",
      "single_word": false,
      "lstrip": false,
      "rstrip": false,
      "normalized": false,
      "special": true
    },
    {
      "id": 2,
      "content": "[CLS]",
      "single_word": false,
      "lstrip": false,
      "rstrip": false,
      "normalized": false,
      "special": true
    },
    {
      "id": 3,
      "content": "[SEP]",
      "single_word": false,
      "lstrip": false,
      "rstrip": false,
      "normalized": false,
      "special": true
    },
    {
      "id": 4,
      "content": "[MASK]",
      "single_word": false,
      "lstrip": false,
      "rstrip": false,
      "normalized": false,
      "special": true
    }
  ],
  "normalizer": null,
  "pre_tokenizer": {
    "type": "Whitespace"
  },
  "post_processor": null,
  "decoder": null,
  "model": {
    "type": "BPE",
    "dropout": null,
    "unk_token": "[UNK]",
    "continuing_subword_prefix": null,
    "end_of_word_suffix": null,
    "fuse_unk": false,
    "byte_fallback": false,
    "ignore_merges": false,
    "vocab": {
      "[UNK]": 0,
      "[PAD]": 1,
      "[CLS]": 2,
      "[SEP]": 3,
      "[MASK]": 4,
      "!": 5,
      "\"": 6,
      "#": 7,
      "$": 8,
      "%": 9,
      "&": 10,
      "'": 11,
      "(": 12,
      ")": 13,
      "*": 14,
      "+": 15,
      ",": 16,
      "-": 17,
      ".": 18,
      "/": 19,
      "0": 20,
      "1": 21,
      "2": 22,
      "3": 23,
      "4": 24,
      "5": 25,
      "6": 26,
      "7": 27,
      "8": 28,
      "9": 29,
      ":": 30,
      ";": 31,
      "<": 32,
      "=": 33,
      ">": 34,
      "?": 35,
      "A": 36,
      "B": 37,
      "C": 38,
      "D": 39,
      "E": 40,
      "F": 41,
      "G": 42,
      "H": 43,
      "I": 44,
      "J": 45,
      "K": 46,
      "L": 47,
      "M": 48,
      "N": 49,
      "O": 50,
      "P": 51,
      "Q": 52,
      "R": 53,
      "S": 54,
      "T": 55,
      "U": 56,
      "V": 57,
      "W": 58,
      "X": 59,
      "Y": 60,
      "Z": 61,
      "[": 62,
      "]": 63,
      "^": 64,
      "_": 65,
      "`": 66,
      "a": 67,
      "b": 68,
      "c": 69,
      "d": 70,
      "e": 71,
      "f": 72,
      "g": 73,
      "h": 74,
      "i": 75,
      "j": 76,
      "k": 77,
      "l": 78,
      "m": 79,
      "n": 80,
      "o": 81,
      "p": 82,
      "q": 83,
      "r": 84,
      "s": 85,
      "t": 86,
      "u": 87,
      "v": 88,
      "w": 89,
      "x": 90,
      "y": 91,
      "z": 92,
      "{": 93,
      "|": 94,
      "}": 95,
      "~": 96,
      "": 97,
      "": 98,
      "": 99,
      "": 100,
      "": 101,
      "": 102,
      "": 103,
      "": 104,
      "": 105,
      "": 106,
      "": 107,
      "": 108,
      "": 109,
      "": 110,
      "": 111,
      "": 112,
      "": 113,
      "": 114,
      "": 115,
      "": 116,
      "": 117,
      "": 118,
      "": 119,
      "": 120,
      "": 121,
      "": 122,
      "": 123,
      "": 124,
      "": 125,
      "": 126,
      "¡": 127,
      "¢": 128,
      "£": 129,
      "¤": 130,
      "¥": 131,
      "¦": 132,
      "§": 133,
      "¨": 134,
      "©": 135,
      "ª": 136,
      "«": 137,
      "¬": 138,
      "­": 139,
      "®": 140,
      "¯": 141,
      "°": 142,
      "±": 143,
      "²": 144,
      "³": 145,
      "´": 146,
      "µ": 147,
      "¶": 148,
      "·": 149,
      "¸": 150,
      "¹": 151,
      "º": 152,
      "»": 153,
      "¼": 154,
      "½": 155,
      "¾": 156,
      "¿": 157,
      "Â": 158,
      "Ã": 159,
      "Ä": 160,
      "Å": 161,
      "Ì": 162,
      "Î": 163,
      "Ï": 164,
      "×": 165,
      "á": 166,
      "â": 167,
      "th": 168,
      "in": 169,
      "the": 170,
      "an": 171,
      "er": 172,
      "ou": 173,
      "re": 174,
      "on": 175,
      "at": 176,
      "en": 177,
      "ed": 178,
      "is": 179,
      "and": 180,
      "to": 181,
      "as": 182,
      "of": 183,
      "or": 184,
      "he": 185,
      "ing": 186,
      "ar": 187,
      "es": 188,
      "ll": 189,
      "it": 190,
      "ha": 191,
      "se": 192,
      "le": 193,
      "me": 194,
      "st": 195,
      "wh": 196,
      "be": 197,
      "no": 198,
      "ch": 199,
      "ro": 200,
      "wi": 201,
      "ve": 202,
      "ce": 203,
      "that": 204,
      "al": 205,
      "": 206,
      "": 207,
      "ly": 208,
      "ld": 209,
      "id": 210,
      "you": 211,
      "im": 212,
      "": 213,
      "gh": 214,
      "ent": 215,
      "his": 216,
      "was": 217,
      "ut": 218,
      "for": 219,
      "ver": 220,
      "ion": 221,
      "ad": 222,
      "ay": 223,
      "her": 224,
      "with": 225,
      "li": 226,
      "so": 227,
      "ow": 228,
      "ir": 229,
      "all": 230,
      "ri": 231,
      "ter": 232,
      "not": 233,
      "un": 234,
      "om": 235,
      "had": 236,
      "my": 237,
      "ght": 238,
      "lo": 239,
      "su": 240,
      "ac": 241,
      "de": 242,
      "him": 243,
      "ther": 244,
      "ke": 245,
      "sa": 246,
      "ould": 247,
      "ur": 248,
      "we": 249,
      "mo": 250,
      "ain": 251,
      "one": 252,
      "ag": 253,
      "ne": 254,
      "us": 255,
      "fe": 256,
      "nd": 257,
      "ab": 258,
      "whi": 259,
      "pe": 260,
      "ic": 261,
      "are": 262,
      "con": 263,
      "am": 264,
      "The": 265,
      "out": 266,
      "ere": 267,
      "po": 268,
      "our": 269,
      "od": 270,
      "ess": 271,
      "have": 272,
      "but": 273,
      "by": 274,
      "which": 275,
      "sh": 276,
      "et": 277,
      "she": 278,
      "man": 279,
      "go": 280,
      "ct": 281,
      "up": 282,
      "rom": 283,
      "do": 284,
      "now": 285,
      "ti": 286,
      "this": 287,
      "qu": 288,
      "res": 289,
      "co": 290,
      "te": 291,
      "if": 292,
      "per": 293,
      "ard": 294,
      "tr": 295,
      "": 296,
      "who": 297,
      "from": 298,
      "ex": 299,
      "est": 300,
      "sel": 301,
      "said": 302,
      "il": 303,
      "ous": 304,
      "ul": 305,
      "ap": 306,
      "ant": 307,
      "end": 308,
      "fo": 309,
      "ind": 310,
      "thing": 311,
      "they": 312,
      "ation": 313,
      "com": 314,
      "ok": 315,
      "ust": 316,
      "very": 317,
      "He": 318,
      "art": 319,
      "ill": 320,
      "wor": 321,
      "were": 322,
      "ate": 323,
      "pl": 324,
      "them": 325,
      "self": 326,
      "ho": 327,
      "ast": 328,
      "ge": 329,
      "ra": 330,
      "thou": 331,
      "ight": 332,
      "ong": 333,
      "there": 334,
      "And": 335,
      "some": 336,
      "would": 337,
      "will": 338,
      "der": 339,
      "fa": 340,
      "ak": 341,
      "Th": 342,
      "au": 343,
      "your": 344,
      "see": 345,
      "way": 346,
      "ound": 347,
      "ven": 348,
      "pro": 349,
      "other": 350,
      "Wh": 351,
      "what": 352,
      "own": 353,
      "dis": 354,
      "their": 355,
      "ure": 356,
      "when": 357,
      "bo": 358,
      "any": 359,
      "op": 360,
      "ity": 361,
      "ck": 362,
      "know": 363,
      "been": 364,
      "af": 365,
      "ish": 366,
      "pr": 367,
      "ame": 368,
      "more": 369,
      "itt": 370,
      "ig": 371,
      "ake": 372,
      "ence": 373,
      "ive": 374,
      "fore": 375,
      "ment": 376,
      "able": 377,
      "ine": 378,
      "here": 379,
      "reat": 380,
      "sha": 381,
      "red": 382,
      "ers": 383,
      "ved": 384,
      "ry": 385,
      "ie": 386,
      "can": 387,
      "But": 388,
      "oun": 389,
      "could": 390,
      "ist": 391,
      "um": 392,
      "bl": 393,
      "like": 394,
      "ass": 395,
      "ance": 396,
      "say": 397,
      "It": 398,
      "did": 399,
      "urn": 400,
      "then": 401,
      "than": 402,
      "ep": 403,
      "wo": 404,
      "into": 405,
      "Mr": 406,
      "ci": 407,
      "ide": 408,
      "el": 409,
      "sp": 410,
      "look": 411,
      "ble": 412,
      "ack": 413,
      "ret": 414,
      "day": 415,
      "time": 416,
      "med": 417,
      "ite": 418,
      "ol": 419,
      "ade": 420,
      "cl": 421,
      "hand": 422,
      "ort": 423,
      "pos": 424,
      "pres": 425,
      "ink": 426,
      "over": 427,
      "ear": 428,
      "age": 429,
      "row": 430,
      "pp": 431,
      "should": 432,
      "has": 433,
      "ving": 434,
      "ted": 435,
      "good": 436,
      "again": 437,
      "ice": 438,
      "ue": 439,
      "ans": 440,
      "ang": 441,
      "come": 442,
      "ach": 443,
      "ough": 444,
      "read": 445,
      "ple": 446,
      "off": 447,
      "how": 448,
      "ire": 449,
      "str": 450,
      "about": 451,
      "br": 452,
      "gr": 453,
      "only": 454,
      "ty": 455,
      "ittle": 456,
      "ves": 457,
      "ally": 458,
      "tain": 459,
      "ree": 460,
      "ever": 461,
      "such": 462,
      "..": 463,
      "great": 464,
      "most": 465,
      "ey": 466,
      "little": 467,
      "its": 468,
      "uch": 469,
      "let": 470,
      "long": 471,
      "well": 472,
      "ave": 473,
      "men": 474,
      "upon": 475,
      "sto": 476,
      "under": 477,
      "ful": 478,
      "where": 479,
      "--": 480,
      "des": 481,
      "gl": 482,
      "ber": 483,
      "ise": 484,
      "fir": 485,
      "si": 486,
      "In": 487,
      "ath": 488,
      "ness": 489,
      "ose": 490,
      "after": 491,
      "act": 492,
      "spe": 493,
      "every": 494,
      "ser": 495,
      "ies": 496,
      "must": 497,
      "part": 498,
      "made": 499,
      "before": 500,
      "pre": 501,
      "pt": 502,
      "ked": 503,
      "may": 504,
      "ord": 505,
      "old": 506,
      "much": 507,
      "We": 508,
      "fl": 509,
      "ary": 510,
      "You": 511,
      "down": 512,
      "She": 513,
      "ull": 514,
      "int": 515,
      "ions": 516,
      "shall": 517,
      "himself": 518,
      "arm": 519,
      "ward": 520,
      "coun": 521,
      "came": 522,
      "sc": 523,
      "ace": 524,
      "ated": 525,
      "light": 526,
      "never": 527,
      "fri": 528,
      "ud": 529,
      "two": 530,
      "son": 531,
      "No": 532,
      "new": 533,
      "thought": 534,
      "think": 535,
      "beg": 536,
      "ious": 537,
      "even": 538,
      "What": 539,
      "less": 540,
      "aw": 541,
      "went": 542,
      "ob": 543,
      "mar": 544,
      "ered": 545,
      "ried": 546,
      "tor": 547,
      "em": 548,
      "first": 549,
      "mon": 550,
      "anc": 551,
      "ign": 552,
      "word": 553,
      "these": 554,
      "ning": 555,
      "ren": 556,
      "head": 557,
      "too": 558,
      "llow": 559,
      "bet": 560,
      "iss": 561,
      "just": 562,
      "king": 563,
      "thy": 564,
      "though": 565,
      "might": 566,
      "being": 567,
      "hi": 568,
      "ouse": 569,
      "Iâ": 570,
      "onâ": 571,
      "life": 572,
      "ps": 573,
      "without": 574,
      "ev": 575,
      "make": 576,
      "cau": 577,
      "lt": 578,
      "tell": 579,
      "ER": 580,
      "vo": 581,
      "That": 582,
      "night": 583,
      "get": 584,
      "call": 585,
      "pass": 586,
      "che": 587,
      "those": 588,
      "fer": 589,
      "To": 590,
      "": 591,
      "led": 592,
      "je": 593,
      "mor": 594,
      "love": 595,
      "friend": 596,
      "eyes": 597,
      "put": 598,
      "cour": 599,
      "thr": 600,
      "turn": 601,
      "right": 602,
      "back": 603,
      "ft": 604,
      "att": 605,
      "sm": 606,
      "clo": 607,
      "stand": 608,
      "lie": 609,
      "cer": 610,
      "house": 611,
      "happ": 612,
      "ild": 613,
      "away": 614,
      "pa": 615,
      "ase": 616,
      "ress": 617,
      "ened": 618,
      "fort": 619,
      "So": 620,
      "inter": 621,
      "cause": 622,
      "room": 623,
      "still": 624,
      "ars": 625,
      "ten": 626,
      "same": 627,
      "last": 628,
      "ick": 629,
      "heart": 630,
      "cons": 631,
      "ily": 632,
      "nothing": 633,
      "take": 634,
      "ting": 635,
      "ner": 636,
      "den": 637,
      "This": 638,
      "full": 639,
      "There": 640,
      "fect": 641,
      "bro": 642,
      "cess": 643,
      "wr": 644,
      "ng": 645,
      "mer": 646,
      "appe": 647,
      "ss": 648,
      "ought": 649,
      "wom": 650,
      "ince": 651,
      "jo": 652,
      "For": 653,
      "young": 654,
      "ts": 655,
      "atter": 656,
      "nat": 657,
      "As": 658,
      "yet": 659,
      "face": 660,
      "gu": 661,
      "nâ": 662,
      "rep": 663,
      "through": 664,
      "ared": 665,
      "bre": 666,
      "father": 667,
      "while": 668,
      "mind": 669,
      "ith": 670,
      "press": 671,
      "aking": 672,
      "give": 673,
      "cont": 674,
      "They": 675,
      "ied": 676,
      "augh": 677,
      "want": 678,
      "found": 679,
      "ways": 680,
      "ings": 681,
      "av": 682,
      "car": 683,
      "once": 684,
      "bed": 685,
      "ks": 686,
      "many": 687,
      "cho": 688,
      "set": 689,
      "saw": 690,
      "du": 691,
      "try": 692,
      "got": 693,
      "gi": 694,
      "another": 695,
      "took": 696,
      "ef": 697,
      "les": 698,
      "ition": 699,
      "gent": 700,
      "min": 701,
      "Then": 702,
      "If": 703,
      "cr": 704,
      "God": 705,
      "child": 706,
      "sur": 707,
      "place": 708,
      "hor": 709,
      "ject": 710,
      "ople": 711,
      "tim": 712,
      "Jo": 713,
      "year": 714,
      "lad": 715,
      "ange": 716,
      "ond": 717,
      "My": 718,
      "cle": 719,
      "Ch": 720,
      "answ": 721,
      "ished": 722,
      "ip": 723,
      "ower": 724,
      "Be": 725,
      "ons": 726,
      "door": 727,
      "ph": 728,
      "wat": 729,
      "When": 730,
      "pect": 731,
      "comp": 732,
      "things": 733,
      "ced": 734,
      "side": 735,
      "bod": 736,
      "kind": 737,
      "people": 738,
      "AN": 739,
      "myself": 740,
      "His": 741,
      "land": 742,
      "comm": 743,
      "cha": 744,
      "nor": 745,
      "sat": 746,
      "rem": 747,
      "present": 748,
      "ot": 749,
      "whom": 750,
      "left": 751,
      "ub": 752,
      "looked": 753,
      "rew": 754,
      "EN": 755,
      "world": 756,
      "feel": 757,
      "reas": 758,
      "18": 759,
      "return": 760,
      "pleas": 761,
      "gen": 762,
      "always": 763,
      "heard": 764,
      "En": 765,
      "iz": 766,
      "seemed": 767,
      "ier": 768,
      "imp": 769,
      "An": 770,
      "sub": 771,
      "ations": 772,
      "ged": 773,
      "TH": 774,
      "air": 775,
      "tal": 776,
      "use": 777,
      "oc": 778,
      "ens": 779,
      "ile": 780,
      "thee": 781,
      "find": 782,
      "Mrs": 783,
      "asked": 784,
      "sl": 785,
      "oment": 786,
      "mother": 787,
      "vis": 788,
      "di": 789,
      "tem": 790,
      "moment": 791,
      "add": 792,
      "donâ": 793,
      "going": 794,
      "aster": 795,
      "cur": 796,
      "wa": 797,
      "Mar": 798,
      "ither": 799,
      "ready": 800,
      "because": 801,
      "ran": 802,
      "something": 803,
      "pri": 804,
      "reg": 805,
      "hon": 806,
      "par": 807,
      "soon": 808,
      "hear": 809,
      "sol": 810,
      "dear": 811,
      "IN": 812,
      "used": 813,
      "How": 814,
      "cap": 815,
      "iness": 816,
      "ma": 817,
      "three": 818,
      "order": 819,
      "lic": 820,
      "told": 821,
      "began": 822,
      "ian": 823,
      "far": 824,
      "done": 825,
      "ins": 826,
      "body": 827,
      "woman": 828,
      "CH": 829,
      "vers": 830,
      "cor": 831,
      "wards": 832,
      "uck": 833,
      "against": 834,
      "times": 835,
      "form": 836,
      "Yes": 837,
      "ff": 838,
      "name": 839,
      "round": 840,
      "sir": 841,
      "having": 842,
      "both": 843,
      "also": 844,
      "ls": 845,
      "Ar": 846,
      "rest": 847,
      "gentle": 848,
      "ction": 849,
      "AR": 850,
      "belie": 851,
      "deed": 852,
      "certain": 853,
      "hel": 854,
      "ush": 855,
      "care": 856,
      "lf": 857,
      "ised": 858,
      "felt": 859,
      "whole": 860,
      "ched": 861,
      "At": 862,
      "better": 863,
      "wind": 864,
      "seen": 865,
      "sure": 866,
      "words": 867,
      "hands": 868,
      "char": 869,
      "Well": 870,
      "ark": 871,
      "mber": 872,
      "dif": 873,
      "follow": 874,
      "dr": 875,
      "ped": 876,
      "person": 877,
      "work": 878,
      "az": 879,
      "pur": 880,
      "serv": 881,
      "raw": 882,
      "vent": 883,
      "fr": 884,
      "cei": 885,
      "quest": 886,
      "ister": 887,
      "spo": 888,
      "dist": 889,
      "),": 890,
      "icul": 891,
      "inst": 892,
      "aut": 893,
      "pose": 894,
      "vi": 895,
      "val": 896,
      "ON": 897,
      "hun": 898,
      "Ro": 899,
      "hold": 900,
      "sou": 901,
      "sil": 902,
      "count": 903,
      "St": 904,
      "ene": 905,
      "stood": 906,
      "ently": 907,
      "fin": 908,
      "till": 909,
      "lied": 910,
      "quite": 911,
      "rel": 912,
      "home": 913,
      "called": 914,
      "knew": 915,
      "sible": 916,
      "near": 917,
      "II": 918,
      "ix": 919,
      "bit": 920,
      "speak": 921,
      "mean": 922,
      "aven": 923,
      "fair": 924,
      "fam": 925,
      "ship": 926,
      "gave": 927,
      "sk": 928,
      "Why": 929,
      "Pr": 930,
      "ained": 931,
      "gener": 932,
      "reme": 933,
      "selves": 934,
      "ended": 935,
      "tru": 936,
      "On": 937,
      "gir": 938,
      "poor": 939,
      "Oh": 940,
      "death": 941,
      "qui": 942,
      "hour": 943,
      "na": 944,
      "tak": 945,
      "ical": 946,
      "cond": 947,
      "cy": 948,
      "dou": 949,
      "ned": 950,
      "ask": 951,
      "All": 952,
      "each": 953,
      "high": 954,
      "course": 955,
      "mis": 956,
      "half": 957,
      "ween": 958,
      "eng": 959,
      "itch": 960,
      "ating": 961,
      "cri": 962,
      "hard": 963,
      "years": 964,
      "sent": 965,
      "ces": 966,
      "voice": 967,
      "ash": 968,
      "unt": 969,
      "fall": 970,
      "matter": 971,
      "conf": 972,
      "ms": 973,
      "lay": 974,
      "os": 975,
      "thus": 976,
      "ris": 977,
      "war": 978,
      "herself": 979,
      "Do": 980,
      "US": 981,
      "cover": 982,
      "point": 983,
      "ited": 984,
      "oud": 985,
      "show": 986,
      "cried": 987,
      "acc": 988,
      "ES": 989,
      "With": 990,
      "ling": 991,
      "une": 992,
      "swe": 993,
      "wal": 994,
      "joy": 995,
      "keep": 996,
      "ute": 997,
      "lady": 998,
      "law": 999,
      "sho": 1000,
      "ures": 1001,
      "blo": 1002,
      "between": 1003,
      "Miss": 1004,
      "gether": 1005,
      "turned": 1006,
      "Co": 1007,
      "ately": 1008,
      "haps": 1009,
      "looking": 1010,
      "sle": 1011,
      "Now": 1012,
      "bes": 1013,
      "together": 1014,
      "OR": 1015,
      "laugh": 1016,
      "Of": 1017,
      "anything": 1018,
      "sup": 1019,
      "TER": 1020,
      "tri": 1021,
      "cannot": 1022,
      "band": 1023,
      "bar": 1024,
      "does": 1025,
      "sing": 1026,
      "boy": 1027,
      "fully": 1028,
      "whe": 1029,
      "true": 1030,
      "xt": 1031,
      "exce": 1032,
      "wife": 1033,
      "hes": 1034,
      "ov": 1035,
      "gra": 1036,
      "whose": 1037,
      "understand": 1038,
      "play": 1039,
      "lord": 1040,
      "master": 1041,
      "power": 1042,
      "ments": 1043,
      "ters": 1044,
      "morning": 1045,
      "ones": 1046,
      "among": 1047,
      "open": 1048,
      "fact": 1049,
      "won": 1050,
      "spir": 1051,
      "ug": 1052,
      "dden": 1053,
      "ster": 1054,
      "rather": 1055,
      "draw": 1056,
      "cted": 1057,
      "replied": 1058,
      "says": 1059,
      "enough": 1060,
      "ceived": 1061,
      "best": 1062,
      "ross": 1063,
      "reason": 1064,
      "few": 1065,
      "almost": 1066,
      "tow": 1067,
      "consid": 1068,
      "cu": 1069,
      "itu": 1070,
      "ense": 1071,
      "sudden": 1072,
      "Go": 1073,
      "beaut": 1074,
      "ather": 1075,
      "brought": 1076,
      "oney": 1077,
      "ined": 1078,
      "ket": 1079,
      "fre": 1080,
      "bus": 1081,
      "cas": 1082,
      "however": 1083,
      "bu": 1084,
      "brother": 1085,
      "adv": 1086,
      "contin": 1087,
      "taken": 1088,
      "AP": 1089,
      "ream": 1090,
      "lar": 1091,
      "fear": 1092,
      "ents": 1093,
      "alone": 1094,
      "need": 1095,
      "live": 1096,
      "que": 1097,
      "hind": 1098,
      "sun": 1099,
      "plain": 1100,
      "since": 1101,
      "leave": 1102,
      "possible": 1103,
      "express": 1104,
      "indeed": 1105,
      "doub": 1106,
      "...": 1107,
      "ken": 1108,
      "pped": 1109,
      "Is": 1110,
      "gone": 1111,
      "cal": 1112,
      "ates": 1113,
      "iled": 1114,
      "ste": 1115,
      "hath": 1116,
      "pain": 1117,
      "tion": 1118,
      "arms": 1119,
      "believe": 1120,
      "anger": 1121,
      "ield": 1122,
      "soul": 1123,
      "pret": 1124,
      "days": 1125,
      "dead": 1126,
      "dark": 1127,
      "nature": 1128,
      "hope": 1129,
      "igh": 1130,
      "ich": 1131,
      "ides": 1132,
      "happy": 1133,
      "ery": 1134,
      "hu": 1135,
      "hus": 1136,
      "four": 1137,
      "reet": 1138,
      "wish": 1139,
      "ants": 1140,
      "ctor": 1141,
      "others": 1142,
      "aim": 1143,
      "sec": 1144,
      "expect": 1145,
      "ref": 1146,
      "known": 1147,
      "low": 1148,
      "given": 1149,
      "ye": 1150,
      "la": 1151,
      "run": 1152,
      "already": 1153,
      "rown": 1154,
      "answered": 1155,
      "Al": 1156,
      "step": 1157,
      "fellow": 1158,
      "coming": 1159,
      "perhaps": 1160,
      "why": 1161,
      "bor": 1162,
      "book": 1163,
      "als": 1164,
      "themselves": 1165,
      "ably": 1166,
      "peri": 1167,
      "therefore": 1168,
      "ta": 1169,
      "Ex": 1170,
      "often": 1171,
      "money": 1172,
      "suc": 1173,
      "sum": 1174,
      "country": 1175,
      "ater": 1176,
      "Engl": 1177,
      "small": 1178,
      "ru": 1179,
      "eas": 1180,
      "Who": 1181,
      "case": 1182,
      "ia": 1183,
      "ief": 1184,
      "everything": 1185,
      "leg": 1186,
      "ST": 1187,
      "passed": 1188,
      "remember": 1189,
      "sor": 1190,
      "lle": 1191,
      "posed": 1192,
      "mine": 1193,
      "help": 1194,
      "blood": 1195,
      "dire": 1196,
      "prom": 1197,
      "next": 1198,
      "Her": 1199,
      "Let": 1200,
      "Mo": 1201,
      "cent": 1202,
      "iting": 1203,
      "ison": 1204,
      "fire": 1205,
      "ca": 1206,
      "thor": 1207,
      "continu": 1208,
      "port": 1209,
      "sign": 1210,
      "appear": 1211,
      "list": 1212,
      "sever": 1213,
      "interest": 1214,
      "THE": 1215,
      "sort": 1216,
      "white": 1217,
      "ove": 1218,
      "husband": 1219,
      "ety": 1220,
      "utter": 1221,
      "oâ": 1222,
      "CHAP": 1223,
      "bur": 1224,
      "either": 1225,
      "itâ": 1226,
      "sound": 1227,
      "towards": 1228,
      "held": 1229,
      "CHAPTER": 1230,
      "friends": 1231,
      "LE": 1232,
      "Qu": 1233,
      "plac": 1234,
      "mist": 1235,
      "whether": 1236,
      "dress": 1237,
      "wall": 1238,
      "answer": 1239,
      "sister": 1240,
      "Par": 1241,
      "pat": 1242,
      "table": 1243,
      "water": 1244,
      "short": 1245,
      "lear": 1246,
      "girl": 1247,
      "appeared": 1248,
      "sed": 1249,
      "ances": 1250,
      "mad": 1251,
      "real": 1252,
      "aint": 1253,
      "question": 1254,
      "dro": 1255,
      "bear": 1256,
      "til": 1257,
      "earth": 1258,
      "black": 1259,
      "ided": 1260,
      "heaven": 1261,
      "adm": 1262,
      "truth": 1263,
      "behind": 1264,
      "else": 1265,
      "wonder": 1266,
      "ceed": 1267,
      "position": 1268,
      "ont": 1269,
      "ground": 1270,
      "sy": 1271,
      "inc": 1272,
      "cut": 1273,
      "least": 1274,
      "strong": 1275,
      "One": 1276,
      "window": 1277,
      "really": 1278,
      "By": 1279,
      "cious": 1280,
      "manner": 1281,
      "tory": 1282,
      "Se": 1283,
      "prof": 1284,
      "AL": 1285,
      "cir": 1286,
      "Here": 1287,
      "honour": 1288,
      "ird": 1289,
      "ured": 1290,
      "ors": 1291,
      "enter": 1292,
      "appro": 1293,
      "fell": 1294,
      "daugh": 1295,
      "along": 1296,
      "ext": 1297,
      "Don": 1298,
      "mur": 1299,
      "Not": 1300,
      "children": 1301,
      "doubt": 1302,
      "chief": 1303,
      "vol": 1304,
      "letter": 1305,
      "meet": 1306,
      "ities": 1307,
      "returned": 1308,
      "differ": 1309,
      "consider": 1310,
      "subject": 1311,
      "Po": 1312,
      "dy": 1313,
      "jud": 1314,
      "stri": 1315,
      "reach": 1316,
      "necess": 1317,
      "saying": 1318,
      "ousand": 1319,
      "lost": 1320,
      "app": 1321,
      "suddenly": 1322,
      "met": 1323,
      "imag": 1324,
      "sleep": 1325,
      "wood": 1326,
      "irt": 1327,
      "eye": 1328,
      "gentleman": 1329,
      "thousand": 1330,
      "arri": 1331,
      "itself": 1332,
      "ton": 1333,
      "family": 1334,
      "second": 1335,
      "ius": 1336,
      "claim": 1337,
      "bring": 1338,
      "evening": 1339,
      "van": 1340,
      "cked": 1341,
      "natur": 1342,
      "ank": 1343,
      "human": 1344,
      "din": 1345,
      "became": 1346,
      "state": 1347,
      "Where": 1348,
      "until": 1349,
      "road": 1350,
      "OL": 1351,
      "iew": 1352,
      "medi": 1353,
      "large": 1354,
      "rench": 1355,
      "uring": 1356,
      "Sir": 1357,
      "lit": 1358,
      "prin": 1359,
      "owed": 1360,
      "wise": 1361,
      "within": 1362,
      "Me": 1363,
      "Lord": 1364,
      "fur": 1365,
      "exc": 1366,
      "ancy": 1367,
      "sight": 1368,
      "....": 1369,
      "riage": 1370,
      "satis": 1371,
      "town": 1372,
      "King": 1373,
      "perfect": 1374,
      "uc": 1375,
      "hair": 1376,
      "ane": 1377,
      "comes": 1378,
      "bad": 1379,
      "ici": 1380,
      "fast": 1381,
      "illed": 1382,
      "lly": 1383,
      "Thou": 1384,
      "aged": 1385,
      "emp": 1386,
      "Val": 1387,
      "covered": 1388,
      "ni": 1389,
      ").": 1390,
      "strange": 1391,
      "ger": 1392,
      "dec": 1393,
      "flo": 1394,
      "vill": 1395,
      "cold": 1396,
      "hur": 1397,
      "view": 1398,
      "means": 1399,
      "ancho": 1400,
      "mid": 1401,
      "deep": 1402,
      "vic": 1403,
      "longer": 1404,
      "stud": 1405,
      "acqu": 1406,
      "ses": 1407,
      "soci": 1408,
      "pray": 1409,
      "tom": 1410,
      "De": 1411,
      "Pe": 1412,
      "mus": 1413,
      "ident": 1414,
      "fav": 1415,
      "ility": 1416,
      "bey": 1417,
      "affect": 1418,
      "respect": 1419,
      "free": 1420,
      "dred": 1421,
      "outh": 1422,
      "Re": 1423,
      "EL": 1424,
      "five": 1425,
      "rid": 1426,
      "reco": 1427,
      "above": 1428,
      "ches": 1429,
      "gre": 1430,
      "ult": 1431,
      "Come": 1432,
      "yourself": 1433,
      "ats": 1434,
      "ady": 1435,
      "become": 1436,
      "itting": 1437,
      "sweet": 1438,
      "creat": 1439,
      "hundred": 1440,
      "youâ": 1441,
      "ching": 1442,
      "ney": 1443,
      "Will": 1444,
      "fac": 1445,
      "occas": 1446,
      "pic": 1447,
      "daughter": 1448,
      "delight": 1449,
      "begin": 1450,
      "making": 1451,
      "trou": 1452,
      "foot": 1453,
      "pen": 1454,
      "obser": 1455,
      "ending": 1456,
      "deli": 1457,
      "Or": 1458,
      "taking": 1459,
      "pub": 1460,
      "Le": 1461,
      "close": 1462,
      "tou": 1463,
      "business": 1464,
      "French": 1465,
      "yes": 1466,
      "num": 1467,
      "ils": 1468,
      "feeling": 1469,
      "stay": 1470,
      "kept": 1471,
      "cry": 1472,
      "pleasure": 1473,
      "talk": 1474,
      "rup": 1475,
      "clear": 1476,
      "charac": 1477,
      "proper": 1478,
      "itted": 1479,
      "akes": 1480,
      "ount": 1481,
      "sess": 1482,
      "quick": 1483,
      "particul": 1484,
      "dri": 1485,
      "sea": 1486,
      "col": 1487,
      "feet": 1488,
      "received": 1489,
      "Ah": 1490,
      "object": 1491,
      "street": 1492,
      "bly": 1493,
      ".\"": 1494,
      "start": 1495,
      "six": 1496,
      "opin": 1497,
      "general": 1498,
      "women": 1499,
      "diff": 1500,
      "horse": 1501,
      "possess": 1502,
      "ili": 1503,
      "usu": 1504,
      "aren": 1505,
      "tend": 1506,
      "command": 1507,
      "hn": 1508,
      "suff": 1509,
      "alth": 1510,
      "shad": 1511,
      "dom": 1512,
      "hum": 1513,
      "contr": 1514,
      "ention": 1515,
      "surpr": 1516,
      "RO": 1517,
      "move": 1518,
      "oft": 1519,
      "qual": 1520,
      "Af": 1521,
      "ired": 1522,
      "urch": 1523,
      "tern": 1524,
      "pie": 1525,
      "lin": 1526,
      "iling": 1527,
      "seem": 1528,
      "idea": 1529,
      "rious": 1530,
      "forth": 1531,
      "sold": 1532,
      "immedi": 1533,
      "god": 1534,
      "effect": 1535,
      "miss": 1536,
      "pet": 1537,
      "gy": 1538,
      "spr": 1539,
      "From": 1540,
      "agn": 1541,
      "iful": 1542,
      "ring": 1543,
      "ages": 1544,
      "tra": 1545,
      "ote": 1546,
      "ual": 1547,
      "Some": 1548,
      "knowled": 1549,
      "ular": 1550,
      "common": 1551,
      "fortune": 1552,
      "regard": 1553,
      "Mad": 1554,
      "gar": 1555,
      "sim": 1556,
      "dest": 1557,
      "gold": 1558,
      "change": 1559,
      "gover": 1560,
      "ror": 1561,
      "Cha": 1562,
      "cast": 1563,
      "ek": 1564,
      "ized": 1565,
      "comple": 1566,
      "account": 1567,
      "prison": 1568,
      "anged": 1569,
      "ING": 1570,
      "TI": 1571,
      "ny": 1572,
      "company": 1573,
      "cept": 1574,
      "smile": 1575,
      "roy": 1576,
      "ows": 1577,
      "ingly": 1578,
      "break": 1579,
      "past": 1580,
      "17": 1581,
      "wild": 1582,
      "Lo": 1583,
      "ices": 1584,
      "concer": 1585,
      "amp": 1586,
      "quiet": 1587,
      "spoke": 1588,
      "bled": 1589,
      "Enter": 1590,
      "gri": 1591,
      "resol": 1592,
      "After": 1593,
      "ceive": 1594,
      "tempt": 1595,
      "ory": 1596,
      "loved": 1597,
      "secret": 1598,
      "itude": 1599,
      "ging": 1600,
      "Nor": 1601,
      "field": 1602,
      "bra": 1603,
      "entered": 1604,
      "cus": 1605,
      "remain": 1606,
      "var": 1607,
      "repe": 1608,
      "Com": 1609,
      "bot": 1610,
      "sometimes": 1611,
      "glad": 1612,
      "vil": 1613,
      "seeing": 1614,
      "lex": 1615,
      "kiss": 1616,
      "standing": 1617,
      "_The": 1618,
      "wel": 1619,
      "desire": 1620,
      "terri": 1621,
      "rap": 1622,
      "dream": 1623,
      "sâ": 1624,
      "character": 1625,
      "convers": 1626,
      "fine": 1627,
      "lead": 1628,
      "lled": 1629,
      "thatâ": 1630,
      "ution": 1631,
      "chair": 1632,
      "ele": 1633,
      "occasion": 1634,
      "die": 1635,
      "tears": 1636,
      "opened": 1637,
      "pair": 1638,
      ",\"": 1639,
      "ze": 1640,
      "difficul": 1641,
      "rose": 1642,
      "wanted": 1643,
      "arr": 1644,
      "aring": 1645,
      "particular": 1646,
      "dep": 1647,
      "added": 1648,
      "paper": 1649,
      "John": 1650,
      "mouth": 1651,
      "continued": 1652,
      "formed": 1653,
      "Itâ": 1654,
      "Your": 1655,
      "guard": 1656,
      "month": 1657,
      "cup": 1658,
      "lea": 1659,
      "Good": 1660,
      "dem": 1661,
      "AM": 1662,
      "gate": 1663,
      "author": 1664,
      "suf": 1665,
      "exam": 1666,
      "quar": 1667,
      "sequ": 1668,
      "pay": 1669,
      "compan": 1670,
      "doing": 1671,
      "pon": 1672,
      "wenty": 1673,
      "lips": 1674,
      "dle": 1675,
      "vid": 1676,
      "mere": 1677,
      "several": 1678,
      "Li": 1679,
      "crow": 1680,
      "remar": 1681,
      "followed": 1682,
      "hast": 1683,
      "cum": 1684,
      "sense": 1685,
      "grow": 1686,
      "fool": 1687,
      "success": 1688,
      "comfort": 1689,
      "ushed": 1690,
      "chool": 1691,
      "Alex": 1692,
      "canâ": 1693,
      "around": 1694,
      "rance": 1695,
      "virt": 1696,
      "lies": 1697,
      "Mon": 1698,
      "passion": 1699,
      "mp": 1700,
      "trans": 1701,
      "decl": 1702,
      "cks": 1703,
      "gard": 1704,
      "neither": 1705,
      "enjoy": 1706,
      "Prince": 1707,
      "bound": 1708,
      "Je": 1709,
      "except": 1710,
      "gn": 1711,
      "ames": 1712,
      "hall": 1713,
      "moved": 1714,
      "ieur": 1715,
      "iously": 1716,
      "cross": 1717,
      "bri": 1718,
      "instant": 1719,
      "suffer": 1720,
      "fing": 1721,
      "Gr": 1722,
      "tle": 1723,
      "def": 1724,
      "stair": 1725,
      "stru": 1726,
      "Bo": 1727,
      "youth": 1728,
      "ys": 1729,
      "immediately": 1730,
      "spect": 1731,
      "opinion": 1732,
      "faith": 1733,
      "ial": 1734,
      "ours": 1735,
      "wit": 1736,
      "produ": 1737,
      "obli": 1738,
      "court": 1739,
      "peace": 1740,
      "por": 1741,
      "raid": 1742,
      "thoughts": 1743,
      "Nat": 1744,
      "wrong": 1745,
      "supp": 1746,
      "spirit": 1747,
      "Quix": 1748,
      "hat": 1749,
      "twenty": 1750,
      ".,": 1751,
      "post": 1752,
      "pretty": 1753,
      "lying": 1754,
      "natural": 1755,
      "Con": 1756,
      "rich": 1757,
      "inted": 1758,
      "arch": 1759,
      "angu": 1760,
      "happened": 1761,
      "heav": 1762,
      "seems": 1763,
      "Paris": 1764,
      "smo": 1765,
      "knowledge": 1766,
      "fied": 1767,
      "Quixote": 1768,
      "pter": 1769,
      "none": 1770,
      "mention": 1771,
      "IR": 1772,
      "drew": 1773,
      "ination": 1774,
      "ific": 1775,
      "IL": 1776,
      "_Ex": 1777,
      "afraid": 1778,
      "Pro": 1779,
      "danger": 1780,
      "tried": 1781,
      "cat": 1782,
      "squ": 1783,
      "remained": 1784,
      "laid": 1785,
      "accord": 1786,
      "OF": 1787,
      "dog": 1788,
      "exp": 1789,
      "gain": 1790,
      "io": 1791,
      "div": 1792,
      "drink": 1793,
      "English": 1794,
      "ale": 1795,
      "suppose": 1796,
      "worthy": 1797,
      "dread": 1798,
      "ative": 1799,
      "moun": 1800,
      "different": 1801,
      "late": 1802,
      "ible": 1803,
      "ries": 1804,
      "fig": 1805,
      "necessary": 1806,
      "during": 1807,
      "Ne": 1808,
      "Sancho": 1809,
      "agree": 1810,
      "ago": 1811,
      "pal": 1812,
      "iment": 1813,
      "force": 1814,
      "Pier": 1815,
      "doctor": 1816,
      "sen": 1817,
      "beautiful": 1818,
      "gro": 1819,
      "Dor": 1820,
      "These": 1821,
      "hilo": 1822,
      "ges": 1823,
      "ually": 1824,
      "living": 1825,
      "hop": 1826,
      "Un": 1827,
      "dut": 1828,
      "har": 1829,
      "neigh": 1830,
      "heâ": 1831,
      "ends": 1832,
      "erâ": 1833,
      "proceed": 1834,
      "former": 1835,
      "import": 1836,
      "IS": 1837,
      "kne": 1838,
      "prob": 1839,
      "worth": 1840,
      "scar": 1841,
      "firm": 1842,
      "stra": 1843,
      "deal": 1844,
      "LO": 1845,
      "glass": 1846,
      "ening": 1847,
      "noble": 1848,
      "fix": 1849,
      "story": 1850,
      "ture": 1851,
      "anced": 1852,
      "public": 1853,
      "espe": 1854,
      "ordin": 1855,
      "16": 1856,
      "slow": 1857,
      "purpose": 1858,
      "rank": 1859,
      "incl": 1860,
      "school": 1861,
      "grace": 1862,
      "Lu": 1863,
      "fortun": 1864,
      ".)": 1865,
      "maid": 1866,
      "Art": 1867,
      "wis": 1868,
      "silence": 1869,
      "burn": 1870,
      "uous": 1871,
      "warm": 1872,
      "circum": 1873,
      "please": 1874,
      "grand": 1875,
      "didnâ": 1876,
      "oured": 1877,
      "fresh": 1878,
      "motion": 1879,
      "ED": 1880,
      "ben": 1881,
      "bling": 1882,
      "vel": 1883,
      "plan": 1884,
      "thinking": 1885,
      "gest": 1886,
      "stren": 1887,
      "conversation": 1888,
      "offic": 1889,
      "va": 1890,
      "trem": 1891,
      "raised": 1892,
      "viol": 1893,
      "usual": 1894,
      "fal": 1895,
      "getting": 1896,
      "whis": 1897,
      "ung": 1898,
      "carry": 1899,
      "mil": 1900,
      "sal": 1901,
      "expected": 1902,
      "exclaim": 1903,
      "wound": 1904,
      "Pierre": 1905,
      "trust": 1906,
      "action": 1907,
      "hiloso": 1908,
      "justice": 1909,
      "further": 1910,
      "favour": 1911,
      "sem": 1912,
      "unto": 1913,
      "dinner": 1914,
      "deser": 1915,
      "certainly": 1916,
      "eat": 1917,
      "carried": 1918,
      "Ho": 1919,
      "eth": 1920,
      "makes": 1921,
      "anim": 1922,
      "ony": 1923,
      "const": 1924,
      "tained": 1925,
      "sult": 1926,
      "struck": 1927,
      "attle": 1928,
      "Mor": 1929,
      "clock": 1930,
      "beauty": 1931,
      "Tom": 1932,
      "Thy": 1933,
      "streng": 1934,
      "Mary": 1935,
      "ient": 1936,
      "ford": 1937,
      "tender": 1938,
      "knows": 1939,
      "bow": 1940,
      "loom": 1941,
      "hood": 1942,
      "cially": 1943,
      "RI": 1944,
      "Br": 1945,
      "AT": 1946,
      "utes": 1947,
      "happiness": 1948,
      "affair": 1949,
      "morrow": 1950,
      "usion": 1951,
      "forward": 1952,
      "ering": 1953,
      "ament": 1954,
      "inct": 1955,
      "ky": 1956,
      "lab": 1957,
      "owers": 1958,
      "sad": 1959,
      "married": 1960,
      "garden": 1961,
      "Per": 1962,
      "gle": 1963,
      "bid": 1964,
      "hardly": 1965,
      "itor": 1966,
      "expression": 1967,
      "doth": 1968,
      "Which": 1969,
      "AND": 1970,
      "fat": 1971,
      "wonâ": 1972,
      "approach": 1973,
      "idence": 1974,
      "hours": 1975,
      "afterwards": 1976,
      "walked": 1977,
      "pan": 1978,
      "thos": 1979,
      "gall": 1980,
      "lived": 1981,
      "exist": 1982,
      "ards": 1983,
      "LA": 1984,
      "XX": 1985,
      "condu": 1986,
      "bert": 1987,
      "inal": 1988,
      "turning": 1989,
      "address": 1990,
      "assa": 1991,
      "fright": 1992,
      "big": 1993,
      "poet": 1994,
      "gaz": 1995,
      "mes": 1996,
      "direct": 1997,
      "soft": 1998,
      "sitting": 1999,
      "sac": 2000,
      "inv": 2001,
      "mat": 2002,
      "Madame": 2003,
      "ience": 2004,
      "tive": 2005,
      "Bar": 2006,
      "fle": 2007,
      "Ly": 2008,
      "tro": 2009,
      "manâ": 2010,
      "bright": 2011,
      "ences": 2012,
      "Lond": 2013,
      "tong": 2014,
      "safe": 2015,
      "iced": 2016,
      "evil": 2017,
      "leng": 2018,
      "sole": 2019,
      "anci": 2020,
      "trave": 2021,
      "service": 2022,
      "ech": 2023,
      "refle": 2024,
      "fif": 2025,
      "experi": 2026,
      "front": 2027,
      "steps": 2028,
      "Dâ": 2029,
      "itten": 2030,
      "descri": 2031,
      "habit": 2032,
      "priv": 2033,
      "ga": 2034,
      "pointed": 2035,
      "tre": 2036,
      "stopped": 2037,
      "captain": 2038,
      "London": 2039,
      "flu": 2040,
      "Chapter": 2041,
      "chance": 2042,
      "rote": 2043,
      "city": 2044,
      "orn": 2045,
      "ler": 2046,
      "ham": 2047,
      "cre": 2048,
      "Thus": 2049,
      "jest": 2050,
      "cul": 2051,
      "memor": 2052,
      "III": 2053,
      "placed": 2054,
      "aâ": 2055,
      "Lady": 2056,
      "weak": 2057,
      "circumst": 2058,
      "anx": 2059,
      "fight": 2060,
      "forgot": 2061,
      "entire": 2062,
      "lig": 2063,
      "main": 2064,
      "ley": 2065,
      "Lev": 2066,
      "fun": 2067,
      "Char": 2068,
      "quired": 2069,
      "pleased": 2070,
      "Thatâ": 2071,
      "wait": 2072,
      "murder": 2073,
      "Pl": 2074,
      "sin": 2075,
      "deter": 2076,
      "attention": 2077,
      "trouble": 2078,
      "servant": 2079,
      "mort": 2080,
      "poc": 2081,
      "breath": 2082,
      "complete": 2083,
      "ager": 2084,
      "ax": 2085,
      "piece": 2086,
      "grave": 2087,
      "IO": 2088,
      "conscious": 2089,
      "loy": 2090,
      "prov": 2091,
      "watch": 2092,
      "test": 2093,
      "England": 2094,
      "treat": 2095,
      "stone": 2096,
      "bs": 2097,
      "giving": 2098,
      "Count": 2099,
      ".]": 2100,
      "itation": 2101,
      "Mons": 2102,
      "pun": 2103,
      "unity": 2104,
      "walk": 2105,
      "wrote": 2106,
      "speaking": 2107,
      "Every": 2108,
      "stro": 2109,
      "Jones": 2110,
      "Yet": 2111,
      "consequ": 2112,
      "Ivan": 2113,
      "lot": 2114,
      "Monsieur": 2115,
      "ising": 2116,
      "ism": 2117,
      "sorrow": 2118,
      "line": 2119,
      "ury": 2120,
      "jour": 2121,
      "strength": 2122,
      "eness": 2123,
      "pale": 2124,
      "length": 2125,
      "wine": 2126,
      "ties": 2127,
      "recogn": 2128,
      "simp": 2129,
      "gentlemen": 2130,
      "philoso": 2131,
      "enemy": 2132,
      "pleasant": 2133,
      "sit": 2134,
      "ishment": 2135,
      "cot": 2136,
      "KING": 2137,
      "ines": 2138,
      "UR": 2139,
      "impossible": 2140,
      "wished": 2141,
      "lling": 2142,
      "cience": 2143,
      "silent": 2144,
      "stairs": 2145,
      "whisper": 2146,
      "intell": 2147,
      "rie": 2148,
      "terrible": 2149,
      "observed": 2150,
      "phe": 2151,
      "ased": 2152,
      "lim": 2153,
      "especially": 2154,
      "bless": 2155,
      "number": 2156,
      "music": 2157,
      "Tr": 2158,
      "excell": 2159,
      "liber": 2160,
      "pursu": 2161,
      "minute": 2162,
      "appearance": 2163,
      "kill": 2164,
      "Have": 2165,
      "ina": 2166,
      "tired": 2167,
      "depart": 2168,
      "agnan": 2169,
      "straight": 2170,
      "shout": 2171,
      "fit": 2172,
      "Artagnan": 2173,
      "Ad": 2174,
      "bell": 2175,
      "reached": 2176,
      "exclaimed": 2177,
      "tone": 2178,
      "society": 2179,
      "talking": 2180,
      "understood": 2181,
      "00": 2182,
      "host": 2183,
      "ordinary": 2184,
      "bour": 2185,
      "corner": 2186,
      "top": 2187,
      "mit": 2188,
      "Ge": 2189,
      "atever": 2190,
      "beyond": 2191,
      "raise": 2192,
      "retched": 2193,
      "mn": 2194,
      "confess": 2195,
      "minutes": 2196,
      "although": 2197,
      "church": 2198,
      ").--": 2199,
      "prince": 2200,
      "third": 2201,
      "born": 2202,
      "princi": 2203,
      "beginning": 2204,
      "hy": 2205,
      "across": 2206,
      "ladies": 2207,
      "filled": 2208,
      "rov": 2209,
      "died": 2210,
      "ining": 2211,
      "board": 2212,
      "writ": 2213,
      "assu": 2214,
      "govern": 2215,
      "tic": 2216,
      "army": 2217,
      "ues": 2218,
      "honest": 2219,
      "ously": 2220,
      "race": 2221,
      "coat": 2222,
      "acted": 2223,
      "pressed": 2224,
      "concl": 2225,
      "Levin": 2226,
      "bles": 2227,
      "Did": 2228,
      "ying": 2229,
      "mal": 2230,
      "nest": 2231,
      "allow": 2232,
      "Are": 2233,
      "za": 2234,
      "uni": 2235,
      "lice": 2236,
      "sick": 2237,
      "preh": 2238,
      "horses": 2239,
      "thes": 2240,
      "iers": 2241,
      "ussi": 2242,
      "sky": 2243,
      "conce": 2244,
      "apo": 2245,
      "fut": 2246,
      "ively": 2247,
      "carriage": 2248,
      "acy": 2249,
      "CE": 2250,
      "spite": 2251,
      "cord": 2252,
      "sake": 2253,
      "girls": 2254,
      "Lau": 2255,
      "Our": 2256,
      "written": 2257,
      "wha": 2258,
      "ilt": 2259,
      "thir": 2260,
      "ality": 2261,
      "greater": 2262,
      "easy": 2263,
      "later": 2264,
      "aste": 2265,
      "slight": 2266,
      "belong": 2267,
      "arrived": 2268,
      "ming": 2269,
      "Du": 2270,
      "eight": 2271,
      "pity": 2272,
      "Can": 2273,
      "bird": 2274,
      "charm": 2275,
      "presence": 2276,
      "false": 2277,
      "forget": 2278,
      "compl": 2279,
      "Em": 2280,
      "looks": 2281,
      "duty": 2282,
      "uncle": 2283,
      "sens": 2284,
      "SE": 2285,
      "susp": 2286,
      "langu": 2287,
      "Gree": 2288,
      "IA": 2289,
      "aston": 2290,
      "rend": 2291,
      "dare": 2292,
      "ille": 2293,
      "meant": 2294,
      "send": 2295,
      "uff": 2296,
      "bers": 2297,
      "aded": 2298,
      "temper": 2299,
      "prove": 2300,
      "Dr": 2301,
      "isted": 2302,
      "news": 2303,
      "vain": 2304,
      "broken": 2305,
      "aught": 2306,
      "following": 2307,
      "waiting": 2308,
      "Ger": 2309,
      "quickly": 2310,
      "shame": 2311,
      "IV": 2312,
      "ding": 2313,
      "heavy": 2314,
      "inqu": 2315,
      "changed": 2316,
      "closed": 2317,
      "thâ": 2318,
      "throw": 2319,
      "cloud": 2320,
      "rist": 2321,
      "ener": 2322,
      "shut": 2323,
      "visit": 2324,
      "trees": 2325,
      "future": 2326,
      "Anne": 2327,
      "Geor": 2328,
      "harm": 2329,
      "marry": 2330,
      "scarce": 2331,
      "occup": 2332,
      "advant": 2333,
      "worse": 2334,
      "pher": 2335,
      "drawing": 2336,
      "uttered": 2337,
      "green": 2338,
      "fancy": 2339,
      "verse": 2340,
      "ples": 2341,
      "ize": 2342,
      "beside": 2343,
      "marriage": 2344,
      "cand": 2345,
      "Heaven": 2346,
      "content": 2347,
      "tongue": 2348,
      "Ed": 2349,
      "Ste": 2350,
      "profess": 2351,
      "box": 2352,
      "instru": 2353,
      "write": 2354,
      "aunt": 2355,
      "ban": 2356,
      "AC": 2357,
      "books": 2358,
      "lif": 2359,
      "early": 2360,
      "repeated": 2361,
      "fixed": 2362,
      "atic": 2363,
      "condition": 2364,
      "ears": 2365,
      "affection": 2366,
      "hid": 2367,
      "ARD": 2368,
      "Alexand": 2369,
      "blue": 2370,
      "ead": 2371,
      "creature": 2372,
      "pi": 2373,
      "learn": 2374,
      "ball": 2375,
      "grat": 2376,
      "iron": 2377,
      "ron": 2378,
      "som": 2379,
      "virtue": 2380,
      "hill": 2381,
      "courage": 2382,
      "polit": 2383,
      "ousin": 2384,
      "spl": 2385,
      "aces": 2386,
      "instead": 2387,
      "Just": 2388,
      "sigh": 2389,
      "Doro": 2390,
      "eks": 2391,
      "Cap": 2392,
      "super": 2393,
      "ctions": 2394,
      "battle": 2395,
      "determin": 2396,
      "meas": 2397,
      "opport": 2398,
      "note": 2399,
      "fash": 2400,
      "neck": 2401,
      "France": 2402,
      "Father": 2403,
      "arent": 2404,
      "net": 2405,
      "lod": 2406,
      "calm": 2407,
      "bon": 2408,
      "greatest": 2409,
      "distance": 2410,
      "Donâ": 2411,
      "pull": 2412,
      "teach": 2413,
      "grew": 2414,
      "pers": 2415,
      "Jean": 2416,
      "influ": 2417,
      "save": 2418,
      "hung": 2419,
      "fold": 2420,
      "Rome": 2421,
      "risti": 2422,
      "tis": 2423,
      "shi": 2424,
      "learned": 2425,
      "floor": 2426,
      "desc": 2427,
      "breast": 2428,
      "15": 2429,
      "Ha": 2430,
      "owing": 2431,
      "lov": 2432,
      "devil": 2433,
      "teen": 2434,
      "history": 2435,
      "Meg": 2436,
      "ency": 2437,
      "crowd": 2438,
      "loud": 2439,
      "ague": 2440,
      "colle": 2441,
      "avo": 2442,
      "ners": 2443,
      "trying": 2444,
      "exact": 2445,
      "ified": 2446,
      "demand": 2447,
      "AS": 2448,
      "uel": 2449,
      "ric": 2450,
      "IUS": 2451,
      "promise": 2452,
      "pocket": 2453,
      "conv": 2454,
      "shar": 2455,
      "ignor": 2456,
      "showed": 2457,
      "spring": 2458,
      "oper": 2459,
      "proud": 2460,
      "prep": 2461,
      "whatever": 2462,
      "myster": 2463,
      "twi": 2464,
      "thank": 2465,
      "Law": 2466,
      "latter": 2467,
      "cher": 2468,
      "iant": 2469,
      "laughed": 2470,
      "mir": 2471,
      "tingu": 2472,
      "orig": 2473,
      "seven": 2474,
      "figure": 2475,
      "exer": 2476,
      "lives": 2477,
      "apart": 2478,
      "fashion": 2479,
      "ires": 2480,
      "lean": 2481,
      "Car": 2482,
      "simple": 2483,
      "Christi": 2484,
      "succeed": 2485,
      "broke": 2486,
      "employ": 2487,
      "pping": 2488,
      "according": 2489,
      "perfectly": 2490,
      "suffici": 2491,
      "sn": 2492,
      "liked": 2493,
      "attack": 2494,
      "ardon": 2495,
      "La": 2496,
      "inâ": 2497,
      "contrary": 2498,
      "hang": 2499,
      "Marius": 2500,
      "nearly": 2501,
      "ec": 2502,
      "toward": 2503,
      "absol": 2504,
      "ishing": 2505,
      "roo": 2506,
      "admir": 2507,
      "Sc": 2508,
      "remark": 2509,
      "ell": 2510,
      "aled": 2511,
      "rant": 2512,
      "idge": 2513,
      "fles": 2514,
      "single": 2515,
      ".--": 2516,
      "Such": 2517,
      "works": 2518,
      "bitter": 2519,
      "simply": 2520,
      "eld": 2521,
      "ns": 2522,
      "threw": 2523,
      "arrow": 2524,
      "thereâ": 2525,
      "effort": 2526,
      "erable": 2527,
      "goes": 2528,
      "thed": 2529,
      "amed": 2530,
      "Amy": 2531,
      "possi": 2532,
      "advent": 2533,
      "months": 2534,
      "rob": 2535,
      "caught": 2536,
      "Hen": 2537,
      "pted": 2538,
      "noon": 2539,
      "letters": 2540,
      "charge": 2541,
      "queen": 2542,
      "ah": 2543,
      "oul": 2544,
      "Andrew": 2545,
      "obliged": 2546,
      "devo": 2547,
      "mistress": 2548,
      "grief": 2549,
      "ping": 2550,
      "leep": 2551,
      "ESS": 2552,
      "May": 2553,
      "fro": 2554,
      "slowly": 2555,
      "journey": 2556,
      "": 2557,
      "RE": 2558,
      "rig": 2559,
      "wealth": 2560,
      "aff": 2561,
      "fatherâ": 2562,
      "merely": 2563,
      "sw": 2564,
      "itions": 2565,
      "Man": 2566,
      "path": 2567,
      "hero": 2568,
      "knowing": 2569,
      "paid": 2570,
      "easily": 2571,
      "satisfied": 2572,
      "lip": 2573,
      "sword": 2574,
      "reck": 2575,
      "key": 2576,
      "wear": 2577,
      "sett": 2578,
      "week": 2579,
      "smiled": 2580,
      "ende": 2581,
      "ises": 2582,
      "eager": 2583,
      "wide": 2584,
      "entirely": 2585,
      "Am": 2586,
      "prevent": 2587,
      "itable": 2588,
      "While": 2589,
      "peas": 2590,
      "Christ": 2591,
      "19": 2592,
      "bing": 2593,
      "lose": 2594,
      "spent": 2595,
      "liar": 2596,
      "log": 2597,
      "surprise": 2598,
      "Ju": 2599,
      "ics": 2600,
      "Never": 2601,
      "persons": 2602,
      "Aly": 2603,
      "sorry": 2604,
      "pit": 2605,
      "conne": 2606,
      "Ben": 2607,
      "Look": 2608,
      "bread": 2609,
      "Russi": 2610,
      "bal": 2611,
      "speech": 2612,
      "loss": 2613,
      "acquaint": 2614,
      "relig": 2615,
      "Was": 2616,
      "occur": 2617,
      "ration": 2618,
      "clothes": 2619,
      "reply": 2620,
      "gods": 2621,
      ".'": 2622,
      "pract": 2623,
      "class": 2624,
      "various": 2625,
      "government": 2626,
      "hot": 2627,
      "presented": 2628,
      "bottom": 2629,
      "leaving": 2630,
      "boat": 2631,
      "party": 2632,
      "probably": 2633,
      "dam": 2634,
      "impress": 2635,
      "Por": 2636,
      "furn": 2637,
      "ras": 2638,
      "lock": 2639,
      "angry": 2640,
      "----": 2641,
      "famili": 2642,
      "kes": 2643,
      "passa": 2644,
      "reading": 2645,
      "dâ": 2646,
      "PH": 2647,
      "Ma": 2648,
      "ANT": 2649,
      "educ": 2650,
      "rope": 2651,
      "smiling": 2652,
      "tains": 2653,
      "tte": 2654,
      "eneath": 2655,
      "absolute": 2656,
      "pond": 2657,
      "stop": 2658,
      "passing": 2659,
      "bility": 2660,
      "isto": 2661,
      "intro": 2662,
      "middle": 2663,
      "amb": 2664,
      "faction": 2665,
      "kno": 2666,
      "separ": 2667,
      "sug": 2668,
      "meaning": 2669,
      "risto": 2670,
      "notice": 2671,
      "George": 2672,
      "knight": 2673,
      "osha": 2674,
      "inno": 2675,
      "Though": 2676,
      "river": 2677,
      "Alyosha": 2678,
      "tree": 2679,
      "despair": 2680,
      "killed": 2681,
      "cheer": 2682,
      "study": 2683,
      "relie": 2684,
      "rapid": 2685,
      "introdu": 2686,
      "health": 2687,
      "sty": 2688,
      "OM": 2689,
      "nice": 2690,
      "office": 2691,
      "seized": 2692,
      "below": 2693,
      "antly": 2694,
      "scene": 2695,
      "venge": 2696,
      "osity": 2697,
      "fate": 2698,
      "iety": 2699,
      "rough": 2700,
      "situ": 2701,
      "besides": 2702,
      "deliver": 2703,
      "fond": 2704,
      "legs": 2705,
      "burst": 2706,
      "memory": 2707,
      "considered": 2708,
      "advantage": 2709,
      "orders": 2710,
      "spot": 2711,
      "rif": 2712,
      "moon": 2713,
      "cou": 2714,
      "spirits": 2715,
      "started": 2716,
      "peror": 2717,
      "obey": 2718,
      "culiar": 2719,
      "asleep": 2720,
      "offer": 2721,
      "NatÃ": 2722,
      "vious": 2723,
      "dressed": 2724,
      "Que": 2725,
      "attempt": 2726,
      "unk": 2727,
      "bold": 2728,
      "touch": 2729,
      "cise": 2730,
      "cost": 2731,
      "ature": 2732,
      "boys": 2733,
      "Laurie": 2734,
      "ourselves": 2735,
      "cape": 2736,
      "brow": 2737,
      "peculiar": 2738,
      "ital": 2739,
      "drawn": 2740,
      "thick": 2741,
      "circumstances": 2742,
      "ease": 2743,
      "allowed": 2744,
      "ET": 2745,
      "seek": 2746,
      "holding": 2747,
      "eper": 2748,
      "ists": 2749,
      "IC": 2750,
      "rise": 2751,
      "support": 2752,
      "mentioned": 2753,
      "opportunity": 2754,
      "fly": 2755,
      "bas": 2756,
      "beat": 2757,
      "tenance": 2758,
      "Eli": 2759,
      "shook": 2760,
      "places": 2761,
      "ribut": 2762,
      "ference": 2763,
      "ancing": 2764,
      "blind": 2765,
      "cler": 2766,
      "agreeable": 2767,
      "Sh": 2768,
      "equ": 2769,
      "inf": 2770,
      "Youâ": 2771,
      "Rich": 2772,
      "seas": 2773,
      "frequ": 2774,
      "judge": 2775,
      "ordered": 2776,
      "Their": 2777,
      "laughing": 2778,
      "luck": 2779,
      "aid": 2780,
      "honor": 2781,
      "decided": 2782,
      "sharp": 2783,
      "pir": 2784,
      "idently": 2785,
      "servants": 2786,
      "fallen": 2787,
      "seat": 2788,
      "chant": 2789,
      "Ab": 2790,
      "Even": 2791,
      "mel": 2792,
      "cial": 2793,
      "See": 2794,
      "Made": 2795,
      "rain": 2796,
      "Monte": 2797,
      "conduct": 2798,
      "stir": 2799,
      "oppos": 2800,
      "village": 2801,
      "QU": 2802,
      "cli": 2803,
      "don": 2804,
      "eunt": 2805,
      "taste": 2806,
      "hither": 2807,
      "Ser": 2808,
      "aked": 2809,
      "spoken": 2810,
      "officer": 2811,
      "hide": 2812,
      "heads": 2813,
      "chamber": 2814,
      "jesty": 2815,
      "ann": 2816,
      "parts": 2817,
      "cries": 2818,
      "tered": 2819,
      "cell": 2820,
      "feelings": 2821,
      "private": 2822,
      "train": 2823,
      "interrup": 2824,
      "deb": 2825,
      "finished": 2826,
      "receive": 2827,
      "Anna": 2828,
      "mach": 2829,
      "noise": 2830,
      "extra": 2831,
      "comb": 2832,
      "ically": 2833,
      "Mat": 2834,
      "escape": 2835,
      "vey": 2836,
      "noticed": 2837,
      "satisfaction": 2838,
      "lack": 2839,
      "soldiers": 2840,
      "ator": 2841,
      "phy": 2842,
      "suggest": 2843,
      "wed": 2844,
      "uded": 2845,
      "rent": 2846,
      "serious": 2847,
      "sail": 2848,
      "surprised": 2849,
      "Joe": 2850,
      "rage": 2851,
      "velo": 2852,
      "bir": 2853,
      "umph": 2854,
      "assist": 2855,
      "suspic": 2856,
      "report": 2857,
      "extreme": 2858,
      "shadow": 2859,
      "unless": 2860,
      "LI": 2861,
      "cousin": 2862,
      "equal": 2863,
      "pardon": 2864,
      "minister": 2865,
      "wore": 2866,
      "Cristo": 2867,
      "ouses": 2868,
      "finite": 2869,
      "depend": 2870,
      "Ville": 2871,
      "bent": 2872,
      "acious": 2873,
      "DE": 2874,
      "Rom": 2875,
      "beneath": 2876,
      "exe": 2877,
      "commun": 2878,
      "imagine": 2879,
      "Tis": 2880,
      "mag": 2881,
      "yield": 2882,
      "oneâ": 2883,
      "discovered": 2884,
      "Sop": 2885,
      "resolved": 2886,
      "believed": 2887,
      "terday": 2888,
      "Christian": 2889,
      "swi": 2890,
      "Henry": 2891,
      "weep": 2892,
      "persu": 2893,
      "LET": 2894,
      "likely": 2895,
      "els": 2896,
      "tily": 2897,
      "scow": 2898,
      "jean": 2899,
      "difficulty": 2900,
      "Cas": 2901,
      "mortal": 2902,
      "ENT": 2903,
      "pride": 2904,
      "gloom": 2905,
      "glance": 2906,
      "attend": 2907,
      "writing": 2908,
      "Ber": 2909,
      "stranger": 2910,
      "darkness": 2911,
      "Valjean": 2912,
      "offered": 2913,
      "preser": 2914,
      "hearing": 2915,
      "brea": 2916,
      "bare": 2917,
      "inj": 2918,
      "Ital": 2919,
      "tran": 2920,
      ",--": 2921,
      "reed": 2922,
      "promised": 2923,
      "whale": 2924,
      "influence": 2925,
      "pu": 2926,
      "und": 2927,
      "Tell": 2928,
      "liberty": 2929,
      "shop": 2930,
      "Eliza": 2931,
      "Shall": 2932,
      "asy": 2933,
      "argu": 2934,
      "Villefort": 2935,
      "inn": 2936,
      "amaz": 2937,
      "remembered": 2938,
      "endeav": 2939,
      "settled": 2940,
      "companion": 2941,
      "language": 2942,
      "bank": 2943,
      "song": 2944,
      "inform": 2945,
      "itary": 2946,
      "coach": 2947,
      "distingu": 2948,
      "thin": 2949,
      "vert": 2950,
      "earnest": 2951,
      "evidently": 2952,
      "Ay": 2953,
      "Saint": 2954,
      "moder": 2955,
      "couldnâ": 2956,
      "_Exeunt": 2957,
      "flowers": 2958,
      "189": 2959,
      "ades": 2960,
      "fee": 2961,
      "witness": 2962,
      "important": 2963,
      "ption": 2964,
      "wand": 2965,
      "rons": 2966,
      "incess": 2967,
      "worn": 2968,
      "result": 2969,
      "kov": 2970,
      "talked": 2971,
      "questions": 2972,
      "forgotten": 2973,
      "Bes": 2974,
      "uses": 2975,
      "tall": 2976,
      "_Exit": 2977,
      "attr": 2978,
      "Rue": 2979,
      "cra": 2980,
      "rat": 2981,
      "somewhat": 2982,
      "shoulders": 2983,
      "summer": 2984,
      "mill": 2985,
      "wouldnâ": 2986,
      "fail": 2987,
      "fingers": 2988,
      "determined": 2989,
      "phys": 2990,
      "liter": 2991,
      "hate": 2992,
      "lest": 2993,
      "fault": 2994,
      "countenance": 2995,
      "Dorothe": 2996,
      "nur": 2997,
      "py": 2998,
      "sses": 2999,
      "symp": 3000,
      "engaged": 3001,
      "mass": 3002,
      "running": 3003,
      "broad": 3004,
      "UC": 3005,
      "Very": 3006,
      "ded": 3007,
      "fill": 3008,
      "tw": 3009,
      "illa": 3010,
      "proved": 3011,
      "solemn": 3012,
      "rub": 3013,
      "consent": 3014,
      "itated": 3015,
      "pot": 3016,
      "telling": 3017,
      "putting": 3018,
      "Nothing": 3019,
      "quis": 3020,
      "meeting": 3021,
      "Athos": 3022,
      "SC": 3023,
      "island": 3024,
      "beast": 3025,
      "crim": 3026,
      "rate": 3027,
      "thro": 3028,
      "rever": 3029,
      "aced": 3030,
      "using": 3031,
      "faces": 3032,
      "nose": 3033,
      "distur": 3034,
      "dreadful": 3035,
      "tori": 3036,
      "ideas": 3037,
      "shore": 3038,
      "gan": 3039,
      "ainted": 3040,
      "ounced": 3041,
      "cab": 3042,
      "houses": 3043,
      "finger": 3044,
      "experience": 3045,
      "llen": 3046,
      "prote": 3047,
      "produced": 3048,
      "New": 3049,
      "Would": 3050,
      "dim": 3051,
      "lower": 3052,
      "freed": 3053,
      "mighty": 3054,
      "delic": 3055,
      "tiv": 3056,
      "soldier": 3057,
      "beha": 3058,
      "desired": 3059,
      "Gl": 3060,
      "ounds": 3061,
      "forced": 3062,
      "visible": 3063,
      "destroy": 3064,
      "walls": 3065,
      "pure": 3066,
      "rul": 3067,
      "Thee": 3068,
      "Nay": 3069,
      "tea": 3070,
      "intellig": 3071,
      "CON": 3072,
      "yours": 3073,
      "benef": 3074,
      "ka": 3075,
      "brain": 3076,
      "Valancy": 3077,
      "yesterday": 3078,
      "Mer": 3079,
      "priest": 3080,
      "tail": 3081,
      "kins": 3082,
      "tit": 3083,
      "wash": 3084,
      "Perhaps": 3085,
      "fru": 3086,
      "excellent": 3087,
      "zen": 3088,
      "dust": 3089,
      "nal": 3090,
      "oned": 3091,
      "erous": 3092,
      "Lucy": 3093,
      "opposite": 3094,
      "due": 3095,
      "beth": 3096,
      "scarcely": 3097,
      "abl": 3098,
      "listened": 3099,
      "mut": 3100,
      "Heâ": 3101,
      "Before": 3102,
      "appointed": 3103,
      "walking": 3104,
      "ker": 3105,
      "Har": 3106,
      "Sun": 3107,
      "gree": 3108,
      "snow": 3109,
      "silver": 3110,
      "fra": 3111,
      "gives": 3112,
      "ians": 3113,
      "hia": 3114,
      "Cose": 3115,
      "Two": 3116,
      "strug": 3117,
      "higher": 3118,
      "loves": 3119,
      "mond": 3120,
      "outside": 3121,
      "serve": 3122,
      "knees": 3123,
      "VI": 3124,
      "handsome": 3125,
      "Lyd": 3126,
      "Cosette": 3127,
      "matters": 3128,
      "Moscow": 3129,
      "thine": 3130,
      "shot": 3131,
      "gment": 3132,
      "direction": 3133,
      "Peter": 3134,
      "Lydgate": 3135,
      "alous": 3136,
      "sport": 3137,
      "possession": 3138,
      "acquaintance": 3139,
      "nation": 3140,
      "worship": 3141,
      "period": 3142,
      "accept": 3143,
      "ables": 3144,
      "Jane": 3145,
      "charming": 3146,
      "?\"": 3147,
      "oth": 3148,
      "Had": 3149,
      "explain": 3150,
      "supposed": 3151,
      "BO": 3152,
      "Fo": 3153,
      "gun": 3154,
      "Ãº": 3155,
      "ENE": 3156,
      "played": 3157,
      "cing": 3158,
      "fier": 3159,
      "stÃ": 3160,
      "curious": 3161,
      "rock": 3162,
      "generally": 3163,
      "pin": 3164,
      "ays": 3165,
      "weâ": 3166,
      "sacrif": 3167,
      "fet": 3168,
      "ability": 3169,
      "blow": 3170,
      "ternal": 3171,
      "splend": 3172,
      "Upon": 3173,
      "ba": 3174,
      "conscience": 3175,
      "armed": 3176,
      "rising": 3177,
      "Alexandrov": 3178,
      "stream": 3179,
      "ause": 3180,
      "degree": 3181,
      "forest": 3182,
      "ato": 3183,
      "passage": 3184,
      "execut": 3185,
      "Ca": 3186,
      "perceived": 3187,
      "particularly": 3188,
      "grap": 3189,
      "takes": 3190,
      "welve": 3191,
      "difficult": 3192,
      "recolle": 3193,
      "touched": 3194,
      "fortunate": 3195,
      "pop": 3196,
      "indi": 3197,
      "dry": 3198,
      "altogether": 3199,
      "Gu": 3200,
      "grown": 3201,
      "tur": 3202,
      "itty": 3203,
      "vision": 3204,
      "Fer": 3205,
      "design": 3206,
      "regular": 3207,
      "ovitch": 3208,
      "cred": 3209,
      "Church": 3210,
      "More": 3211,
      "listen": 3212,
      "hurt": 3213,
      "sooner": 3214,
      "advice": 3215,
      "tin": 3216,
      "Richard": 3217,
      "ior": 3218,
      "chill": 3219,
      "terror": 3220,
      "mas": 3221,
      "Duke": 3222,
      "strain": 3223,
      "cruel": 3224,
      "RostÃ": 3225,
      "birth": 3226,
      "Cl": 3227,
      "appoint": 3228,
      "prepared": 3229,
      "iv": 3230,
      "grad": 3231,
      "stor": 3232,
      "Thereâ": 3233,
      "build": 3234,
      "hence": 3235,
      "mark": 3236,
      "aside": 3237,
      "otherwise": 3238,
      "mission": 3239,
      "Fe": 3240,
      "ags": 3241,
      "understanding": 3242,
      "Ind": 3243,
      "threat": 3244,
      "sme": 3245,
      "ushing": 3246,
      "distress": 3247,
      "Only": 3248,
      "waited": 3249,
      "gress": 3250,
      "audi": 3251,
      "apt": 3252,
      "lovely": 3253,
      "rooms": 3254,
      "Cer": 3255,
      "Eu": 3256,
      "dev": 3257,
      "situation": 3258,
      "Wil": 3259,
      "proof": 3260,
      "afternoon": 3261,
      "Beth": 3262,
      "sides": 3263,
      "winter": 3264,
      "thrown": 3265,
      "kets": 3266,
      "ump": 3267,
      "ancient": 3268,
      "exactly": 3269,
      "food": 3270,
      "March": 3271,
      "portion": 3272,
      "hopes": 3273,
      "tes": 3274,
      "Indeed": 3275,
      "star": 3276,
      "haste": 3277,
      "Sophia": 3278,
      "UN": 3279,
      "gif": 3280,
      "finding": 3281,
      "capable": 3282,
      "Mity": 3283,
      "property": 3284,
      "leaves": 3285,
      "moving": 3286,
      "iff": 3287,
      "HAM": 3288,
      "revol": 3289,
      "appears": 3290,
      "avoid": 3291,
      "Gre": 3292,
      "lars": 3293,
      "sion": 3294,
      "alive": 3295,
      "aby": 3296,
      "anyone": 3297,
      "actions": 3298,
      "event": 3299,
      "ORA": 3300,
      "names": 3301,
      "German": 3302,
      "calling": 3303,
      "mercy": 3304,
      "franc": 3305,
      "communic": 3306,
      "thered": 3307,
      "affairs": 3308,
      "However": 3309,
      "hab": 3310,
      "praise": 3311,
      "yard": 3312,
      "retch": 3313,
      "breakfast": 3314,
      "divine": 3315,
      "upid": 3316,
      "tray": 3317,
      "prisoner": 3318,
      "theless": 3319,
      "speed": 3320,
      "hearts": 3321,
      "FF": 3322,
      "contem": 3323,
      "spread": 3324,
      "Dang": 3325,
      "win": 3326,
      "FIR": 3327,
      "triumph": 3328,
      "individ": 3329,
      "asha": 3330,
      "FIRST": 3331,
      "Master": 3332,
      "served": 3333,
      "State": 3334,
      "accus": 3335,
      "dig": 3336,
      "pol": 3337,
      "guest": 3338,
      "Dorothea": 3339,
      "Danglars": 3340,
      "dying": 3341,
      "excited": 3342,
      "expressed": 3343,
      "kissed": 3344,
      "flesh": 3345,
      "Hol": 3346,
      "quarter": 3347,
      "extraordinary": 3348,
      "zz": 3349,
      "joined": 3350,
      "reput": 3351,
      "happen": 3352,
      "sought": 3353,
      "teeth": 3354,
      "vâ": 3355,
      "double": 3356,
      "wretched": 3357,
      "moral": 3358,
      "truly": 3359,
      "brave": 3360,
      "AD": 3361,
      "unhappy": 3362,
      "apparent": 3363,
      "fled": 3364,
      "suit": 3365,
      "asc": 3366,
      "iments": 3367,
      "begun": 3368,
      "crown": 3369,
      "dign": 3370,
      "lu": 3371,
      "odor": 3372,
      "familiar": 3373,
      "SCENE": 3374,
      "card": 3375,
      "twelve": 3376,
      "hole": 3377,
      "etc": 3378,
      "Than": 3379,
      "guess": 3380,
      "enced": 3381,
      "crit": 3382,
      "fifty": 3383,
      "anti": 3384,
      "Elizabeth": 3385,
      "wicked": 3386,
      "attered": 3387,
      "grass": 3388,
      "ception": 3389,
      "behold": 3390,
      "famous": 3391,
      "declared": 3392,
      "game": 3393,
      "aware": 3394,
      "clean": 3395,
      "inquir": 3396,
      "Take": 3397,
      "shoulder": 3398,
      "everybody": 3399,
      "neighbor": 3400,
      "mons": 3401,
      "abs": 3402,
      "education": 3403,
      "ds": 3404,
      "whence": 3405,
      "sufficient": 3406,
      "urious": 3407,
      "keeping": 3408,
      "neighbour": 3409,
      "ferred": 3410,
      "existence": 3411,
      "acle": 3412,
      "aken": 3413,
      "drag": 3414,
      "confidence": 3415,
      "nikov": 3416,
      "acquainted": 3417,
      "sheâ": 3418,
      "discus": 3419,
      "empty": 3420,
      "Ill": 3421,
      "unknown": 3422,
      "authority": 3423,
      "thirty": 3424,
      "inced": 3425,
      "holy": 3426,
      "movement": 3427,
      "Napo": 3428,
      "contro": 3429,
      "consequence": 3430,
      "arest": 3431,
      "windows": 3432,
      "princess": 3433,
      "assured": 3434,
      "intim": 3435,
      "itors": 3436,
      "francs": 3437,
      "dull": 3438,
      "isher": 3439,
      "Jove": 3440,
      "Fred": 3441,
      "Im": 3442,
      "MAR": 3443,
      "greatly": 3444,
      "gently": 3445,
      "orm": 3446,
      "distinct": 3447,
      "miserable": 3448,
      "Vrons": 3449,
      "edge": 3450,
      "hest": 3451,
      "surround": 3452,
      "ancholy": 3453,
      "Napole": 3454,
      "cking": 3455,
      "yellow": 3456,
      "ail": 3457,
      "sell": 3458,
      "glor": 3459,
      "welcome": 3460,
      "caut": 3461,
      "bosom": 3462,
      "ovna": 3463,
      "Emperor": 3464,
      "thunder": 3465,
      "ached": 3466,
      "bore": 3467,
      "BE": 3468,
      "share": 3469,
      "counter": 3470,
      "horri": 3471,
      "presently": 3472,
      "vessel": 3473,
      "Besides": 3474,
      "Vronsky": 3475,
      "mour": 3476,
      "arily": 3477,
      "grant": 3478,
      "chest": 3479,
      "picture": 3480,
      "reader": 3481,
      "taining": 3482,
      "Queen": 3483,
      "cit": 3484,
      "curi": 3485,
      "seated": 3486,
      "horror": 3487,
      "onel": 3488,
      "Give": 3489,
      "TO": 3490,
      "farm": 3491,
      "ilar": 3492,
      "glory": 3493,
      "fare": 3494,
      "antic": 3495,
      "resu": 3496,
      "anxious": 3497,
      "Tho": 3498,
      "ceased": 3499,
      "streets": 3500,
      "nine": 3501,
      "intended": 3502,
      "Cor": 3503,
      "establ": 3504,
      "watched": 3505,
      "Min": 3506,
      "cow": 3507,
      "narrow": 3508,
      "trembling": 3509,
      "squire": 3510,
      "melancholy": 3511,
      "desp": 3512,
      "Scot": 3513,
      "request": 3514,
      "thinks": 3515,
      "possessed": 3516,
      "fish": 3517,
      "freedom": 3518,
      "tum": 3519,
      "twice": 3520,
      "style": 3521,
      "ashamed": 3522,
      "entreat": 3523,
      "ify": 3524,
      "indif": 3525,
      "begged": 3526,
      "Uly": 3527,
      "aud": 3528,
      "motherâ": 3529,
      "cro": 3530,
      "kitch": 3531,
      "ome": 3532,
      "zed": 3533,
      "sage": 3534,
      "willing": 3535,
      "blame": 3536,
      "dropped": 3537,
      "wonderful": 3538,
      "IT": 3539,
      "wing": 3540,
      "Porthos": 3541,
      "Cour": 3542,
      "police": 3543,
      "suffered": 3544,
      "Ulysses": 3545,
      "suffering": 3546,
      "laws": 3547,
      "midst": 3548,
      "kn": 3549,
      "doors": 3550,
      "impat": 3551,
      "hurried": 3552,
      "tions": 3553,
      "apped": 3554,
      "Albert": 3555,
      "drop": 3556,
      "cure": 3557,
      "whispered": 3558,
      "iter": 3559,
      "ets": 3560,
      "Princess": 3561,
      "increas": 3562,
      "Mitya": 3563,
      "vast": 3564,
      "convic": 3565,
      "respond": 3566,
      "tors": 3567,
      "excite": 3568,
      "thod": 3569,
      "compreh": 3570,
      "Captain": 3571,
      "example": 3572,
      "shouted": 3573,
      "_b": 3574,
      "faint": 3575,
      "mater": 3576,
      "forgive": 3577,
      "rence": 3578,
      "meric": 3579,
      "duke": 3580,
      "swear": 3581,
      "stern": 3582,
      "non": 3583,
      "unable": 3584,
      "ems": 3585,
      "amid": 3586,
      "crying": 3587,
      "golden": 3588,
      "ORD": 3589,
      "sons": 3590,
      "caused": 3591,
      "magn": 3592,
      "pill": 3593,
      "asking": 3594,
      "grate": 3595,
      "drunk": 3596,
      "frightened": 3597,
      "len": 3598,
      "search": 3599,
      "iles": 3600,
      "slave": 3601,
      "Again": 3602,
      "Ear": 3603,
      "GE": 3604,
      "repro": 3605,
      "ainâ": 3606,
      "discover": 3607,
      "intention": 3608,
      "accident": 3609,
      "madam": 3610,
      "quietly": 3611,
      "impression": 3612,
      "BER": 3613,
      "DU": 3614,
      "height": 3615,
      "events": 3616,
      "naturally": 3617,
      "violent": 3618,
      "wounded": 3619,
      "paren": 3620,
      "entine": 3621,
      "difference": 3622,
      "cting": 3623,
      "jealous": 3624,
      "188": 3625,
      "oked": 3626,
      "Europe": 3627,
      "bill": 3628,
      "feat": 3629,
      "tire": 3630,
      "march": 3631,
      "Like": 3632,
      "Americ": 3633,
      "royal": 3634,
      "succeeded": 3635,
      "sympath": 3636,
      "Kitty": 3637,
      "issu": 3638,
      "chang": 3639,
      "moise": 3640,
      "ounce": 3641,
      "curiosity": 3642,
      "acity": 3643,
      "misery": 3644,
      "itive": 3645,
      "agg": 3646,
      "Jud": 3647,
      "stupid": 3648,
      "reve": 3649,
      "profound": 3650,
      "Scene": 3651,
      "ume": 3652,
      "ashed": 3653,
      "supper": 3654,
      "drove": 3655,
      "convinced": 3656,
      "kitchen": 3657,
      "tif": 3658,
      "friendship": 3659,
      "Ano": 3660,
      "Dar": 3661,
      "subst": 3662,
      "lines": 3663,
      "transl": 3664,
      "troop": 3665,
      "interrupted": 3666,
      "gin": 3667,
      "moiselle": 3668,
      "yr": 3669,
      "onely": 3670,
      "Because": 3671,
      "sla": 3672,
      "Alexey": 3673,
      "completely": 3674,
      "ships": 3675,
      "directly": 3676,
      "nard": 3677,
      "loving": 3678,
      "drive": 3679,
      "ots": 3680,
      "station": 3681,
      "seless": 3682,
      "indic": 3683,
      "monstr": 3684,
      "thyself": 3685,
      "crime": 3686,
      "quire": 3687,
      "pieces": 3688,
      "enorm": 3689,
      "keeper": 3690,
      "Still": 3691,
      "lover": 3692,
      "regret": 3693,
      "imagination": 3694,
      "Sover": 3695,
      "rare": 3696,
      "taught": 3697,
      "arse": 3698,
      "watching": 3699,
      "Marilla": 3700,
      "opening": 3701,
      "custom": 3702,
      "elder": 3703,
      "vous": 3704,
      "Another": 3705,
      "IX": 3706,
      "pes": 3707,
      "stick": 3708,
      "space": 3709,
      "ceiving": 3710,
      "nobody": 3711,
      "dost": 3712,
      "moments": 3713,
      "weight": 3714,
      "arts": 3715,
      "falling": 3716,
      "arrival": 3717,
      "Rask": 3718,
      "ost": 3719,
      "member": 3720,
      "olnikov": 3721,
      "lifted": 3722,
      "Raskolnikov": 3723,
      "mix": 3724,
      "186": 3725,
      "comfortable": 3726,
      "Roman": 3727,
      "Whatâ": 3728,
      "superi": 3729,
      "complain": 3730,
      "prepar": 3731,
      "severe": 3732,
      "Fir": 3733,
      "ien": 3734,
      "utmost": 3735,
      "pron": 3736,
      "Morrel": 3737,
      "measure": 3738,
      "dwell": 3739,
      "alter": 3740,
      "da": 3741,
      "gs": 3742,
      "thanks": 3743,
      "oh": 3744,
      "usted": 3745,
      "Therefore": 3746,
      "ruin": 3747,
      "wisdom": 3748,
      "eds": 3749,
      "agreed": 3750,
      "conven": 3751,
      "delighted": 3752,
      "cool": 3753,
      "occupied": 3754,
      "lted": 3755,
      "value": 3756,
      "vig": 3757,
      "ishop": 3758,
      "lighted": 3759,
      "instance": 3760,
      "flew": 3761,
      "terms": 3762,
      "actually": 3763,
      "ension": 3764,
      "dangerous": 3765,
      "resem": 3766,
      "sav": 3767,
      "ighest": 3768,
      "original": 3769,
      "Fran": 3770,
      "Valentine": 3771,
      "proceeded": 3772,
      "weather": 3773,
      "contempt": 3774,
      "arrange": 3775,
      "wid": 3776,
      "special": 3777,
      "splendid": 3778,
      "KE": 3779,
      "treas": 3780,
      "kindness": 3781,
      "forms": 3782,
      "engage": 3783,
      "concerning": 3784,
      "aband": 3785,
      "mistake": 3786,
      "approached": 3787,
      "Old": 3788,
      "rous": 3789,
      "mankind": 3790,
      "shape": 3791,
      "conqu": 3792,
      "shown": 3793,
      "minds": 3794,
      "majesty": 3795,
      "nod": 3796,
      "soever": 3797,
      "thrust": 3798,
      "skin": 3799,
      "smoke": 3800,
      "12": 3801,
      "prick": 3802,
      "listening": 3803,
      "considerable": 3804,
      "Sovera": 3805,
      "papers": 3806,
      "rushed": 3807,
      "ilty": 3808,
      "posing": 3809,
      "Greek": 3810,
      "shr": 3811,
      "quet": 3812,
      "wants": 3813,
      "Den": 3814,
      "gue": 3815,
      "escap": 3816,
      "worst": 3817,
      "grim": 3818,
      "Dant": 3819,
      "stead": 3820,
      "interested": 3821,
      "possibly": 3822,
      "Holmes": 3823,
      "highest": 3824,
      "retreat": 3825,
      "laughter": 3826,
      "rule": 3827,
      "miles": 3828,
      "Those": 3829,
      "parents": 3830,
      "Nich": 3831,
      "flight": 3832,
      "rum": 3833,
      "delicious": 3834,
      "wishes": 3835,
      "Lou": 3836,
      "aming": 3837,
      "bestow": 3838,
      "thorough": 3839,
      "Charles": 3840,
      "Pres": 3841,
      "ante": 3842,
      "amis": 3843,
      "perm": 3844,
      "phen": 3845,
      "Nichol": 3846,
      "officers": 3847,
      "tures": 3848,
      "profession": 3849,
      "Col": 3850,
      "shalt": 3851,
      "cies": 3852,
      "clam": 3853,
      "carefully": 3854,
      "excuse": 3855,
      "Russian": 3856,
      "Son": 3857,
      "lust": 3858,
      "male": 3859,
      "growing": 3860,
      "innocent": 3861,
      ":--": 3862,
      "Wor": 3863,
      "een": 3864,
      "interesting": 3865,
      "fruit": 3866,
      "Napoleon": 3867,
      "tice": 3868,
      "yer": 3869,
      "orous": 3870,
      "condem": 3871,
      "afford": 3872,
      "Power": 3873,
      "bull": 3874,
      "aries": 3875,
      "tied": 3876,
      "bridge": 3877,
      "distant": 3878,
      "Edward": 3879,
      "behavi": 3880,
      "iable": 3881,
      "illy": 3882,
      "woods": 3883,
      "expl": 3884,
      "everyone": 3885,
      "necessity": 3886,
      "icial": 3887,
      "Nature": 3888,
      "MAN": 3889,
      "forehead": 3890,
      "Bet": 3891,
      "RY": 3892,
      "ude": 3893,
      "hell": 3894,
      "beheld": 3895,
      "accompl": 3896,
      "fulness": 3897,
      "souls": 3898,
      "occurred": 3899,
      "First": 3900,
      "ado": 3901,
      "labour": 3902,
      "candle": 3903,
      "Love": 3904,
      "conceal": 3905,
      "DantÃ": 3906,
      "Aunt": 3907,
      "Zar": 3908,
      "reasons": 3909,
      "Fl": 3910,
      "_â": 3911,
      "ths": 3912,
      "exha": 3913,
      "anâ": 3914,
      "retired": 3915,
      "gazed": 3916,
      "HAMLET": 3917,
      "immen": 3918,
      "active": 3919,
      "appreh": 3920,
      "choose": 3921,
      "foolish": 3922,
      "183": 3923,
      "Having": 3924,
      "Bor": 3925,
      "accompan": 3926,
      "icle": 3927,
      "igned": 3928,
      "Bloom": 3929,
      "kni": 3930,
      "spend": 3931,
      "preci": 3932,
      "usually": 3933,
      "regarded": 3934,
      "Certain": 3935,
      "fol": 3936,
      "cles": 3937,
      "catch": 3938,
      "eding": 3939,
      "del": 3940,
      "creatures": 3941,
      "philosophy": 3942,
      "dar": 3943,
      "powers": 3944,
      "reser": 3945,
      "join": 3946,
      "indign": 3947,
      "hoped": 3948,
      "itution": 3949,
      "190": 3950,
      "_S": 3951,
      "guardian": 3952,
      "philosopher": 3953,
      "absolutely": 3954,
      "superior": 3955,
      "14": 3956,
      "stock": 3957,
      "similar": 3958,
      "13": 3959,
      "Pa": 3960,
      "uf": 3961,
      "hurry": 3962,
      "stretched": 3963,
      "astic": 3964,
      "cheeks": 3965,
      "playing": 3966,
      "reputation": 3967,
      "!\"": 3968,
      "burg": 3969,
      "prud": 3970,
      "informed": 3971,
      "weeks": 3972,
      "ender": 3973,
      "disappeared": 3974,
      "yâ": 3975,
      "Nicholas": 3976,
      "Him": 3977,
      "uce": 3978,
      "invol": 3979,
      "beard": 3980,
      "coll": 3981,
      "theyâ": 3982,
      "personal": 3983,
      "Bl": 3984,
      "Pri": 3985,
      "Pet": 3986,
      "resist": 3987,
      "indul": 3988,
      "Poor": 3989,
      "burning": 3990,
      "Illust": 3991,
      "colour": 3992,
      "RA": 3993,
      "mbers": 3994,
      "stones": 3995,
      "tial": 3996,
      "plant": 3997,
      "observ": 3998,
      "kingdom": 3999,
      "absence": 4000,
      "Great": 4001,
      "forty": 4002,
      "manif": 4003,
      "castle": 4004,
      "Soveraign": 4005,
      "assure": 4006,
      "method": 4007,
      "farther": 4008,
      "HO": 4009,
      "alo": 4010,
      "mance": 4011,
      "ustra": 4012,
      "clim": 4013,
      "match": 4014,
      "Men": 4015,
      "Mother": 4016,
      "dance": 4017,
      "inquired": 4018,
      "represent": 4019,
      "roof": 4020,
      "aval": 4021,
      "clearly": 4022,
      "citiz": 4023,
      "ect": 4024,
      "ites": 4025,
      "athustra": 4026,
      "stands": 4027,
      "affected": 4028,
      "Zarathustra": 4029,
      "Doc": 4030,
      "Str": 4031,
      "West": 4032,
      "working": 4033,
      "fields": 4034,
      "revenge": 4035,
      "lift": 4036,
      "delay": 4037,
      "manners": 4038,
      "rested": 4039,
      "ias": 4040,
      "ician": 4041,
      "guilty": 4042,
      "nearer": 4043,
      "equally": 4044,
      "Elin": 4045,
      "_A": 4046,
      "ision": 4047,
      "Aramis": 4048,
      "judgment": 4049,
      "Elinor": 4050,
      "Ye": 4051,
      "ives": 4052,
      "istr": 4053,
      "thri": 4054,
      "este": 4055,
      "counsel": 4056,
      "MON": 4057,
      "uced": 4058,
      "entrance": 4059,
      "native": 4060,
      "favor": 4061,
      "aches": 4062,
      "amma": 4063,
      "nie": 4064,
      "instinct": 4065,
      "relation": 4066,
      "vation": 4067,
      "evol": 4068,
      "187": 4069,
      "surely": 4070,
      "villain": 4071,
      "pulled": 4072,
      "gay": 4073,
      "sand": 4074,
      "theat": 4075,
      "saved": 4076,
      "advanced": 4077,
      "stars": 4078,
      "desper": 4079,
      "azar": 4080,
      "appointment": 4081,
      "explained": 4082,
      "Sup": 4083,
      "enem": 4084,
      "aps": 4085,
      "fined": 4086,
      "patience": 4087,
      "kerchief": 4088,
      "enemies": 4089,
      "Spe": 4090,
      "zy": 4091,
      "develo": 4092,
      "sacred": 4093,
      "invent": 4094,
      "184": 4095,
      "asp": 4096,
      "modest": 4097,
      "awful": 4098,
      "univers": 4099,
      "_pub": 4100,
      "clever": 4101,
      "izing": 4102,
      "Allworthy": 4103,
      "needs": 4104,
      "brace": 4105,
      "sof": 4106,
      "glanced": 4107,
      "entertain": 4108,
      "peasant": 4109,
      "swift": 4110,
      "10": 4111,
      "Wo": 4112,
      "voices": 4113,
      "mounted": 4114,
      "iam": 4115,
      "nes": 4116,
      "likewise": 4117,
      "uding": 4118,
      "importance": 4119,
      "immense": 4120,
      "betray": 4121,
      "tible": 4122,
      "tel": 4123,
      "refused": 4124,
      "Life": 4125,
      "instantly": 4126,
      "Fy": 4127,
      "Pal": 4128,
      "fanci": 4129,
      "today": 4130,
      "imper": 4131,
      "udder": 4132,
      "minded": 4133,
      "finally": 4134,
      "subjects": 4135,
      "labor": 4136,
      "Hon": 4137,
      "James": 4138,
      "Mont": 4139,
      "ais": 4140,
      "fever": 4141,
      "cases": 4142,
      "carrying": 4143,
      "Mademoiselle": 4144,
      "VII": 4145,
      "bowed": 4146,
      "stage": 4147,
      "preced": 4148,
      "merry": 4149,
      "Fyodor": 4150,
      "tomorrow": 4151,
      "anybody": 4152,
      "corre": 4153,
      "delicate": 4154,
      "ik": 4155,
      "irr": 4156,
      "agon": 4157,
      "strang": 4158,
      "calls": 4159,
      "STA": 4160,
      "strode": 4161,
      "birds": 4162,
      "modern": 4163,
      "Dis": 4164,
      "jum": 4165,
      "ache": 4166,
      "embr": 4167,
      "intellect": 4168,
      "title": 4169,
      "task": 4170,
      "kindly": 4171,
      "Rosa": 4172,
      "emotion": 4173,
      "atherine": 4174,
      "buried": 4175,
      "sli": 4176,
      "becoming": 4177,
      "evidence": 4178,
      "Alas": 4179,
      "brill": 4180,
      "War": 4181,
      "lâ": 4182,
      "tomed": 4183,
      "voy": 4184,
      "friendly": 4185,
      "singular": 4186,
      "treated": 4187,
      "Casau": 4188,
      "Pat": 4189,
      "ught": 4190,
      "inhabit": 4191,
      "stem": 4192,
      "disposition": 4193,
      "confusion": 4194,
      "brown": 4195,
      "shine": 4196,
      "hosp": 4197,
      "social": 4198,
      "Rep": 4199,
      "unning": 4200,
      "ThÃ": 4201,
      "fortunes": 4202,
      "Spir": 4203,
      "lat": 4204,
      "dram": 4205,
      "religion": 4206,
      "cil": 4207,
      "dic": 4208,
      "patient": 4209,
      "individual": 4210,
      "Tro": 4211,
      "wilt": 4212,
      "shire": 4213,
      "obed": 4214,
      "square": 4215,
      "animal": 4216,
      "PR": 4217,
      "nay": 4218,
      "unexpected": 4219,
      "goodness": 4220,
      "flower": 4221,
      "INE": 4222,
      "logy": 4223,
      "cook": 4224,
      "awa": 4225,
      "slept": 4226,
      "tale": 4227,
      "Long": 4228,
      "pause": 4229,
      "vy": 4230,
      "ert": 4231,
      "assem": 4232,
      "bearing": 4233,
      "Sim": 4234,
      "eremon": 4235,
      "sche": 4236,
      "evitch": 4237,
      "onsense": 4238,
      "behaviour": 4239,
      "oath": 4240,
      "hidden": 4241,
      "s_": 4242,
      "sco": 4243,
      "iâ": 4244,
      "unfortunate": 4245,
      "remains": 4246,
      "EEN": 4247,
      "Fare": 4248,
      "infinite": 4249,
      "rejo": 4250,
      "aker": 4251,
      "185": 4252,
      "ROM": 4253,
      "Doctor": 4254,
      "eternal": 4255,
      "aging": 4256,
      "tier": 4257,
      "Ark": 4258,
      "storm": 4259,
      "Jen": 4260,
      "MER": 4261,
      "dain": 4262,
      "busy": 4263,
      "provided": 4264,
      "writer": 4265,
      "Bul": 4266,
      "Des": 4267,
      "relations": 4268,
      "ignorant": 4269,
      "Bas": 4270,
      "removed": 4271,
      "acles": 4272,
      "resumed": 4273,
      "GO": 4274,
      "shed": 4275,
      "estate": 4276,
      "Hector": 4277,
      "sisters": 4278,
      "quisite": 4279,
      "Certainly": 4280,
      "istic": 4281,
      "throat": 4282,
      "grateful": 4283,
      "VIII": 4284,
      "erson": 4285,
      "Mean": 4286,
      "hanging": 4287,
      "suspicion": 4288,
      "Ren": 4289,
      "Pray": 4290,
      "ID": 4291,
      "chan": 4292,
      "delightful": 4293,
      "blessed": 4294,
      "Say": 4295,
      "required": 4296,
      "lia": 4297,
      "deeply": 4298,
      "described": 4299,
      "notes": 4300,
      "ram": 4301,
      "omer": 4302,
      "evident": 4303,
      "crossed": 4304,
      "addressed": 4305,
      "departure": 4306,
      "cliff": 4307,
      "excitement": 4308,
      "High": 4309,
      "roll": 4310,
      "tear": 4311,
      "mountain": 4312,
      "Ivanovna": 4313,
      "alley": 4314,
      "scri": 4315,
      "generous": 4316,
      "needed": 4317,
      "horrible": 4318,
      "enthus": 4319,
      "mistaken": 4320,
      "sympathy": 4321,
      "UL": 4322,
      "bringing": 4323,
      "senses": 4324,
      "clouds": 4325,
      "devoted": 4326,
      "Catherine": 4327,
      "onder": 4328,
      "ashes": 4329,
      "buy": 4330,
      "fifteen": 4331,
      "CO": 4332,
      "Sat": 4333,
      "pack": 4334,
      "aloud": 4335,
      "ented": 4336,
      "usâ": 4337,
      "excess": 4338,
      "desir": 4339,
      "choice": 4340,
      "Godâ": 4341,
      "resolution": 4342,
      "vague": 4343,
      "grou": 4344,
      "rupt": 4345,
      "brief": 4346,
      "feared": 4347,
      "shaking": 4348,
      "ission": 4349,
      "advance": 4350,
      "fellows": 4351,
      "consideration": 4352,
      "smell": 4353,
      "awn": 4354,
      "belief": 4355,
      "learning": 4356,
      "Dian": 4357,
      "RU": 4358,
      "inside": 4359,
      "shudder": 4360,
      "worked": 4361,
      "precious": 4362,
      "bury": 4363,
      "admit": 4364,
      "RICH": 4365,
      "dignity": 4366,
      "Broo": 4367,
      "Prof": 4368,
      "dogs": 4369,
      "remarkable": 4370,
      "fierce": 4371,
      "Since": 4372,
      "mured": 4373,
      "negle": 4374,
      "manage": 4375,
      "compe": 4376,
      "proposed": 4377,
      "observe": 4378,
      "Cad": 4379,
      "pounds": 4380,
      "'": 4381,
      "scream": 4382,
      "ensive": 4383,
      "waist": 4384,
      "accustomed": 4385,
      "ceremon": 4386,
      "swall": 4387,
      "rapidly": 4388,
      "Brooke": 4389,
      "camp": 4390,
      "pick": 4391,
      "pisto": 4392,
      "rust": 4393,
      "omin": 4394,
      "powerful": 4395,
      "grey": 4396,
      "WN": 4397,
      "sees": 4398,
      "alarm": 4399,
      "amuse": 4400,
      "misfortune": 4401,
      "points": 4402,
      "signs": 4403,
      "resto": 4404,
      "182": 4405,
      "gloomy": 4406,
      "accompanied": 4407,
      "Sha": 4408,
      "isâ": 4409,
      "iding": 4410,
      "agger": 4411,
      "surd": 4412,
      "circle": 4413,
      "enjoyed": 4414,
      "Pol": 4415,
      "Troy": 4416,
      "sink": 4417,
      "recomm": 4418,
      "weary": 4419,
      "amongst": 4420,
      "Arkady": 4421,
      "Es": 4422,
      "slip": 4423,
      "heat": 4424,
      "abroad": 4425,
      "gray": 4426,
      "arranged": 4427,
      "political": 4428,
      "Mazar": 4429,
      "fame": 4430,
      "committed": 4431,
      "ghost": 4432,
      "valu": 4433,
      "fury": 4434,
      "perfor": 4435,
      "Span": 4436,
      "rors": 4437,
      "isnâ": 4438,
      "hers": 4439,
      "umb": 4440,
      "compar": 4441,
      "murmured": 4442,
      "mysterious": 4443,
      "Alexandrovitch": 4444,
      "plent": 4445,
      "handkerchief": 4446,
      "tu": 4447,
      "anch": 4448,
      "returning": 4449,
      "Marian": 4450,
      "quality": 4451,
      "bottle": 4452,
      "Illustration": 4453,
      "forbid": 4454,
      "desires": 4455,
      "manifest": 4456,
      "poison": 4457,
      "ctr": 4458,
      "perceive": 4459,
      "Three": 4460,
      "whatâ": 4461,
      "anxiety": 4462,
      "astonishment": 4463,
      "information": 4464,
      "knife": 4465,
      "tar": 4466,
      "remo": 4467,
      "parted": 4468,
      "partly": 4469,
      "voc": 4470,
      "faithful": 4471,
      "frequently": 4472,
      "Ac": 4473,
      "chol": 4474,
      "cop": 4475,
      "THER": 4476,
      "gathered": 4477,
      "relief": 4478,
      "popular": 4479,
      "viously": 4480,
      "ador": 4481,
      "woe": 4482,
      "countess": 4483,
      "glorious": 4484,
      "unch": 4485,
      "highly": 4486,
      "cript": 4487,
      "tails": 4488,
      "continually": 4489,
      "dreams": 4490,
      "bac": 4491,
      "named": 4492,
      "ller": 4493,
      "spare": 4494,
      "distinguished": 4495,
      ",'": 4496,
      "JO": 4497,
      "singing": 4498,
      "refuse": 4499,
      "Common": 4500,
      "troops": 4501,
      "Mid": 4502,
      "gained": 4503,
      "lion": 4504,
      "pier": 4505,
      "tâ": 4506,
      "wet": 4507,
      "preva": 4508,
      "skill": 4509,
      "barr": 4510,
      "leading": 4511,
      "COND": 4512,
      "Jim": 4513,
      "execution": 4514,
      "protest": 4515,
      "extremely": 4516,
      "hin": 4517,
      "advis": 4518,
      "foreign": 4519,
      "directed": 4520,
      "eâ": 4521,
      "asped": 4522,
      "estern": 4523,
      "iture": 4524,
      "showing": 4525,
      "remarked": 4526,
      "bought": 4527,
      "sar": 4528,
      "actice": 4529,
      "eign": 4530,
      "infer": 4531,
      "adventure": 4532,
      "Among": 4533,
      "Franz": 4534,
      "feast": 4535,
      "explan": 4536,
      "boots": 4537,
      "origin": 4538,
      "RICHARD": 4539,
      "Cam": 4540,
      "Ph": 4541,
      "Anton": 4542,
      "tempted": 4543,
      "fatal": 4544,
      "couple": 4545,
      "season": 4546,
      "Und": 4547,
      "sour": 4548,
      "lessly": 4549,
      "flatter": 4550,
      "cheek": 4551,
      "attent": 4552,
      "attended": 4553,
      "credit": 4554,
      "House": 4555,
      "loose": 4556,
      "absurd": 4557,
      "prospect": 4558,
      "consist": 4559,
      "reality": 4560,
      "NORA": 4561,
      "meâ": 4562,
      "flat": 4563,
      "sensible": 4564,
      "employed": 4565,
      "assistance": 4566,
      "sacrifice": 4567,
      "iest": 4568,
      "secure": 4569,
      "raising": 4570,
      "setting": 4571,
      "Caes": 4572,
      "Tur": 4573,
      "gown": 4574,
      "kin": 4575,
      "lease": 4576,
      "ldom": 4577,
      "odd": 4578,
      "shake": 4579,
      "SECOND": 4580,
      "sofa": 4581,
      "base": 4582,
      "practice": 4583,
      "thence": 4584,
      "ints": 4585,
      "intent": 4586,
      "exceed": 4587,
      "driven": 4588,
      "concerned": 4589,
      "darling": 4590,
      "enchant": 4591,
      "aspect": 4592,
      "icles": 4593,
      "progress": 4594,
      "guide": 4595,
      "constant": 4596,
      "Ven": 4597,
      "arose": 4598,
      "geon": 4599,
      "ashing": 4600,
      "heavens": 4601,
      "gradually": 4602,
      "gust": 4603,
      "haven": 4604,
      "bel": 4605,
      "histori": 4606,
      "longed": 4607,
      "crack": 4608,
      "painful": 4609,
      "imagined": 4610,
      "grie": 4611,
      "page": 4612,
      "eral": 4613,
      "cloak": 4614,
      "History": 4615,
      "gaze": 4616,
      "experienced": 4617,
      "reckon": 4618,
      "frame": 4619,
      "furious": 4620,
      "ali": 4621,
      "sov": 4622,
      "locked": 4623,
      "composed": 4624,
      "lets": 4625,
      "genius": 4626,
      "Au": 4627,
      "Were": 4628,
      "require": 4629,
      "process": 4630,
      "younger": 4631,
      "reward": 4632,
      "ork": 4633,
      "Thom": 4634,
      "paused": 4635,
      "charged": 4636,
      "Once": 4637,
      "introduced": 4638,
      "turns": 4639,
      "nurse": 4640,
      "Marianne": 4641,
      "LES": 4642,
      "_ed": 4643,
      "pow": 4644,
      "omen": 4645,
      "tight": 4646,
      "bodies": 4647,
      "built": 4648,
      "strike": 4649,
      "apparently": 4650,
      "baby": 4651,
      "vex": 4652,
      "shade": 4653,
      "ROS": 4654,
      "QUEEN": 4655,
      "Bulstrode": 4656,
      "dÃ": 4657,
      "mess": 4658,
      "iny": 4659,
      "ators": 4660,
      "uten": 4661,
      "rendered": 4662,
      "Mazarin": 4663,
      "poetry": 4664,
      "concluded": 4665,
      "Sil": 4666,
      "wick": 4667,
      "pled": 4668,
      "somewhere": 4669,
      "leaning": 4670,
      "vice": 4671,
      "lla": 4672,
      "lect": 4673,
      "Weâ": 4674,
      "obsc": 4675,
      "marked": 4676,
      "hitherto": 4677,
      ",)": 4678,
      "plainly": 4679,
      "Most": 4680,
      "Coun": 4681,
      "mud": 4682,
      "becomes": 4683,
      "althy": 4684,
      "sheep": 4685,
      "obst": 4686,
      "sorts": 4687,
      "Sm": 4688,
      "image": 4689,
      "uted": 4690,
      "woke": 4691,
      "civil": 4692,
      "contempl": 4693,
      "brilliant": 4694,
      "humour": 4695,
      "demanded": 4696,
      "Hall": 4697,
      "sover": 4698,
      "hollow": 4699,
      "bloody": 4700,
      "escaped": 4701,
      "Ded": 4702,
      "Gener": 4703,
      "seldom": 4704,
      "--": 4705,
      "acce": 4706,
      "recognized": 4707,
      "features": 4708,
      "Right": 4709,
      "SH": 4710,
      "Sal": 4711,
      "astonished": 4712,
      "exercise": 4713,
      "chilles": 4714,
      "recon": 4715,
      "failed": 4716,
      "previous": 4717,
      "drinking": 4718,
      "Harry": 4719,
      "sovereign": 4720,
      "Achilles": 4721,
      "eg": 4722,
      "stuff": 4723,
      "capital": 4724,
      "York": 4725,
      "whenever": 4726,
      "shoes": 4727,
      "WH": 4728,
      "idle": 4729,
      "frag": 4730,
      "admiration": 4731,
      "Caesar": 4732,
      "Fort": 4733,
      "fetch": 4734,
      "muttered": 4735,
      "ading": 4736,
      "admitted": 4737,
      "render": 4738,
      "Stepan": 4739,
      "Jack": 4740,
      "_s": 4741,
      "lamp": 4742,
      "stain": 4743,
      "stiff": 4744,
      "Out": 4745,
      "iot": 4746,
      "lan": 4747,
      "lst": 4748,
      "yo": 4749,
      "assur": 4750,
      "quarrel": 4751,
      "Uncle": 4752,
      "Sunday": 4753,
      "naked": 4754,
      "Street": 4755,
      "Ox": 4756,
      "foul": 4757,
      "vest": 4758,
      "abb": 4759,
      "acts": 4760,
      "cheerful": 4761,
      "Wilkins": 4762,
      "lier": 4763,
      "tip": 4764,
      "dressing": 4765,
      "science": 4766,
      "zov": 4767,
      "handed": 4768,
      "sounds": 4769,
      "eating": 4770,
      "ignorance": 4771,
      "rou": 4772,
      "exped": 4773,
      "waters": 4774,
      "ucket": 4775,
      "troubled": 4776,
      "softly": 4777,
      "apartment": 4778,
      "Arkadyevitch": 4779,
      "HEL": 4780,
      "rad": 4781,
      "unconscious": 4782,
      "precise": 4783,
      "strict": 4784,
      "project": 4785,
      "interval": 4786,
      "pipe": 4787,
      "clerk": 4788,
      "Louis": 4789,
      "buck": 4790,
      "bones": 4791,
      "fil": 4792,
      "nonsense": 4793,
      "curate": 4794,
      "pains": 4795,
      "Both": 4796,
      "inclined": 4797,
      "religious": 4798,
      "argument": 4799,
      "chase": 4800,
      "rolled": 4801,
      "discourse": 4802,
      "spake": 4803,
      "deny": 4804,
      "gather": 4805,
      "loqu": 4806,
      "ulous": 4807,
      "womanâ": 4808,
      "huge": 4809,
      "sprang": 4810,
      "Casaubon": 4811,
      "llo": 4812,
      "fears": 4813,
      "scorn": 4814,
      "timid": 4815,
      "contented": 4816,
      "thoroughly": 4817,
      "straw": 4818,
      "founded": 4819,
      "touching": 4820,
      "convey": 4821,
      "upstairs": 4822,
      "trade": 4823,
      "awake": 4824,
      "regiment": 4825,
      "sym": 4826,
      "incere": 4827,
      "William": 4828,
      "delivered": 4829,
      "Fre": 4830,
      "IAN": 4831,
      "Ti": 4832,
      "toms": 4833,
      "rode": 4834,
      "cock": 4835,
      "folly": 4836,
      "suggested": 4837,
      "reproach": 4838,
      "Kut": 4839,
      "beloved": 4840,
      "wholly": 4841,
      "settle": 4842,
      "licity": 4843,
      "magnific": 4844,
      "HEN": 4845,
      "eleg": 4846,
      "abo": 4847,
      "disput": 4848,
      "fling": 4849,
      "doesnâ": 4850,
      "governor": 4851,
      "palace": 4852,
      "intelligence": 4853,
      "jor": 4854,
      "lid": 4855,
      "suspect": 4856,
      "tridge": 4857,
      "humble": 4858,
      "greet": 4859,
      "lof": 4860,
      "propos": 4861,
      "helped": 4862,
      "Roche": 4863,
      "reflection": 4864,
      "cott": 4865,
      "daily": 4866,
      "CA": 4867,
      "MO": 4868,
      "_I": 4869,
      "wings": 4870,
      "dozen": 4871,
      "umn": 4872,
      "produce": 4873,
      "Brit": 4874,
      "circumstance": 4875,
      "GER": 4876,
      "flying": 4877,
      "recovered": 4878,
      "deck": 4879,
      "mood": 4880,
      "shining": 4881,
      "umber": 4882,
      "champ": 4883,
      "During": 4884,
      "Wal": 4885,
      "iance": 4886,
      "anno": 4887,
      "sex": 4888,
      "deeds": 4889,
      "violence": 4890,
      "PE": 4891,
      "impul": 4892,
      "prayer": 4893,
      "concern": 4894,
      "Diana": 4895,
      "dared": 4896,
      "leap": 4897,
      "cele": 4898,
      "endure": 4899,
      "disco": 4900,
      "utterly": 4901,
      "nardier": 4902,
      "Gent": 4903,
      "Ja": 4904,
      "Till": 4905,
      "cence": 4906,
      "toâ": 4907,
      "plun": 4908,
      "useful": 4909,
      "Whose": 4910,
      "madame": 4911,
      "mountains": 4912,
      "Ãºzov": 4913,
      "accepted": 4914,
      "KutÃºzov": 4915,
      "fed": 4916,
      "gates": 4917,
      "kings": 4918,
      "reasonable": 4919,
      "principle": 4920,
      "celebr": 4921,
      "wretch": 4922,
      "extr": 4923,
      "rath": 4924,
      "tenderness": 4925,
      "concealed": 4926,
      "exquisite": 4927,
      "Thank": 4928,
      "bride": 4929,
      "breaking": 4930,
      "careful": 4931,
      "borne": 4932,
      "views": 4933,
      "gratitude": 4934,
      "mate": 4935,
      "sper": 4936,
      "yce": 4937,
      "flame": 4938,
      "cloth": 4939,
      "trial": 4940,
      "groan": 4941,
      "Oâ": 4942,
      "Ra": 4943,
      "swell": 4944,
      "pless": 4945,
      "military": 4946,
      "Dear": 4947,
      "respon": 4948,
      "addition": 4949,
      "enger": 4950,
      "lawyer": 4951,
      "wheel": 4952,
      "Gar": 4953,
      "acing": 4954,
      "asted": 4955,
      "everywhere": 4956,
      "ELL": 4957,
      "pursued": 4958,
      "surrounded": 4959,
      "stared": 4960,
      "chim": 4961,
      "compassion": 4962,
      "someone": 4963,
      "strained": 4964,
      "silk": 4965,
      "facts": 4966,
      "objects": 4967,
      "Sometimes": 4968,
      "Italian": 4969,
      "bond": 4970,
      "absor": 4971,
      "disgrace": 4972,
      "Beau": 4973,
      "shadows": 4974,
      "principal": 4975,
      "IST": 4976,
      "unjust": 4977,
      "XXX": 4978,
      "monsieur": 4979,
      "PÃ": 4980,
      "entering": 4981,
      "chiefly": 4982,
      "opinions": 4983,
      "missed": 4984,
      "pup": 4985,
      "insp": 4986,
      "signific": 4987,
      "Peters": 4988,
      "tering": 4989,
      "weigh": 4990,
      "flung": 4991,
      "Stephen": 4992,
      "ICK": 4993,
      "increased": 4994,
      "utenant": 4995,
      "Ahab": 4996,
      "Jar": 4997,
      "drow": 4998,
      "wasnâ": 4999,
      "upper": 5000,
      "gracious": 5001,
      "system": 5002,
      "Vic": 5003,
      "ese": 5004,
      "weakness": 5005,
      "SÃ": 5006,
      "associ": 5007,
      "keen": 5008,
      "phan": 5009,
      "correspond": 5010,
      "confused": 5011,
      "Poet": 5012,
      "approaching": 5013,
      "nights": 5014,
      "chosen": 5015,
      "daughters": 5016,
      "struggl": 5017,
      "FAL": 5018,
      "chess": 5019,
      "brothers": 5020,
      "--------": 5021,
      "Each": 5022,
      "Flo": 5023,
      "Sub": 5024,
      "cart": 5025,
      "fain": 5026,
      "slo": 5027,
      "shel": 5028,
      "shepher": 5029,
      "lights": 5030,
      "falls": 5031,
      "stronger": 5032,
      "invited": 5033,
      "Italy": 5034,
      "Che": 5035,
      "sincere": 5036,
      "staff": 5037,
      "icing": 5038,
      "text": 5039,
      "repeat": 5040,
      "smooth": 5041,
      "wedding": 5042,
      "HENRY": 5043,
      "pul": 5044,
      "inward": 5045,
      "penet": 5046,
      "mystery": 5047,
      "_d": 5048,
      "cient": 5049,
      "formerly": 5050,
      "efforts": 5051,
      "ributed": 5052,
      "lux": 5053,
      "withstanding": 5054,
      "weap": 5055,
      "landlord": 5056,
      "shows": 5057,
      "uneasy": 5058,
      "defend": 5059,
      "punishment": 5060,
      "Han": 5061,
      "Lat": 5062,
      "wrath": 5063,
      "widow": 5064,
      "**": 5065,
      "nut": 5066,
      "itate": 5067,
      "ulated": 5068,
      "seeking": 5069,
      "properly": 5070,
      "hatred": 5071,
      "20": 5072,
      "oped": 5073,
      "prefer": 5074,
      "deceived": 5075,
      "slee": 5076,
      "belonged": 5077,
      "liest": 5078,
      "Book": 5079,
      "Fa": 5080,
      "TE": 5081,
      "intend": 5082,
      "monster": 5083,
      "follows": 5084,
      "sleeping": 5085,
      "flood": 5086,
      "reflected": 5087,
      "RAN": 5088,
      "meat": 5089,
      "stam": 5090,
      "sip": 5091,
      "contri": 5092,
      "peasants": 5093,
      "thither": 5094,
      "atory": 5095,
      "adop": 5096,
      "pover": 5097,
      "akov": 5098,
      "longing": 5099,
      "emin": 5100,
      "Madam": 5101,
      "Wood": 5102,
      "Under": 5103,
      "sank": 5104,
      "independ": 5105,
      "shirt": 5106,
      "Heath": 5107,
      "ieu": 5108,
      "fairly": 5109,
      "struggle": 5110,
      "Petersburg": 5111,
      "UM": 5112,
      "bag": 5113,
      "fuck": 5114,
      "lately": 5115,
      "gram": 5116,
      "embrace": 5117,
      "picked": 5118,
      "declare": 5119,
      "indiffer": 5120,
      "Jes": 5121,
      "pushed": 5122,
      "organ": 5123,
      "prize": 5124,
      "Without": 5125,
      "fancied": 5126,
      "ii": 5127,
      "thew": 5128,
      "pole": 5129,
      "nevertheless": 5130,
      "chain": 5131,
      "created": 5132,
      "coward": 5133,
      "Hes": 5134,
      "sadd": 5135,
      "cts": 5136,
      "passions": 5137,
      "milk": 5138,
      "slaves": 5139,
      "mild": 5140,
      "useless": 5141,
      "bye": 5142,
      "angel": 5143,
      "Death": 5144,
      "icester": 5145,
      "enormous": 5146,
      "bun": 5147,
      "bade": 5148,
      "ads": 5149,
      "menâ": 5150,
      "nervous": 5151,
      "waves": 5152,
      "Leicester": 5153,
      "fi": 5154,
      "ole": 5155,
      "stout": 5156,
      "Coll": 5157,
      "spiritu": 5158,
      "continue": 5159,
      "conclusion": 5160,
      "rea": 5161,
      "cret": 5162,
      "Through": 5163,
      "brows": 5164,
      "disturbed": 5165,
      "Rosamond": 5166,
      "PRIN": 5167,
      "pressing": 5168,
      "TIO": 5169,
      "Tim": 5170,
      "renew": 5171,
      "recover": 5172,
      "STAFF": 5173,
      "discovery": 5174,
      "Western": 5175,
      "somebody": 5176,
      "hastily": 5177,
      "prayers": 5178,
      "facul": 5179,
      "desperate": 5180,
      "Dmit": 5181,
      "store": 5182,
      "sentiment": 5183,
      "deliber": 5184,
      "tranqu": 5185,
      "Bishop": 5186,
      "DY": 5187,
      "Hu": 5188,
      "lament": 5189,
      "amount": 5190,
      "resent": 5191,
      "disposed": 5192,
      "prejud": 5193,
      "venture": 5194,
      "victory": 5195,
      "possibility": 5196,
      "General": 5197,
      "TA": 5198,
      "bul": 5199,
      "calcul": 5200,
      "animals": 5201,
      "Matthew": 5202,
      "savage": 5203,
      "Dmitri": 5204,
      "irty": 5205,
      "comr": 5206,
      "spark": 5207,
      "offence": 5208,
      "True": 5209,
      "descended": 5210,
      "ASS": 5211,
      "Ce": 5212,
      "flies": 5213,
      "tured": 5214,
      "whist": 5215,
      "consol": 5216,
      "spected": 5217,
      "horn": 5218,
      "guests": 5219,
      "TUS": 5220,
      "oting": 5221,
      "sear": 5222,
      "chi": 5223,
      "vering": 5224,
      "didst": 5225,
      "GH": 5226,
      "Wat": 5227,
      "drank": 5228,
      "liness": 5229,
      "ule": 5230,
      "extent": 5231,
      "companions": 5232,
      "weeping": 5233,
      "DUKE": 5234,
      "barrass": 5235,
      "Far": 5236,
      "Many": 5237,
      "Ver": 5238,
      "crew": 5239,
      "gation": 5240,
      "waste": 5241,
      "embarrass": 5242,
      "burden": 5243,
      "knee": 5244,
      "critic": 5245,
      "material": 5246,
      "Ter": 5247,
      "aling": 5248,
      "adic": 5249,
      "sob": 5250,
      "ults": 5251,
      "ideal": 5252,
      "murmur": 5253,
      "occasions": 5254,
      "connected": 5255,
      "furniture": 5256,
      "Heathcliff": 5257,
      "Mic": 5258,
      "mbr": 5259,
      "itz": 5260,
      "lored": 5261,
      "explanation": 5262,
      "FALSTAFF": 5263,
      "dra": 5264,
      "whilst": 5265,
      "distr": 5266,
      "destru": 5267,
      "quarters": 5268,
      "consciousness": 5269,
      "energy": 5270,
      "About": 5271,
      "treasure": 5272,
      "jumped": 5273,
      "Jarnd": 5274,
      "PAR": 5275,
      "Sud": 5276,
      "flow": 5277,
      "attitude": 5278,
      "examined": 5279,
      "stained": 5280,
      "wept": 5281,
      "overcome": 5282,
      "sentence": 5283,
      "pictures": 5284,
      "troubles": 5285,
      "connection": 5286,
      "tivity": 5287,
      "theatre": 5288,
      "Jarndyce": 5289,
      "Full": 5290,
      "toler": 5291,
      "Sheâ": 5292,
      "sonâ": 5293,
      "crates": 5294,
      "parl": 5295,
      "pointing": 5296,
      "fourth": 5297,
      "Fri": 5298,
      "RESS": 5299,
      "kho": 5300,
      "himâ": 5301,
      "Partridge": 5302,
      "vengeance": 5303,
      "benefit": 5304,
      "quit": 5305,
      "discer": 5306,
      "oping": 5307,
      "wherein": 5308,
      "borrow": 5309,
      "gazing": 5310,
      "safety": 5311,
      "Little": 5312,
      "dess": 5313,
      "whel": 5314,
      "rot": 5315,
      "details": 5316,
      "doll": 5317,
      "cursed": 5318,
      "doubted": 5319,
      "Plato": 5320,
      "phew": 5321,
      "hungry": 5322,
      "cabin": 5323,
      "bree": 5324,
      "coff": 5325,
      "obtained": 5326,
      "Sudden": 5327,
      "iently": 5328,
      "rush": 5329,
      "proportion": 5330,
      "plex": 5331,
      "price": 5332,
      "mingled": 5333,
      "Ham": 5334,
      "pace": 5335,
      "nephew": 5336,
      "painted": 5337,
      "Gover": 5338,
      "ement": 5339,
      "hom": 5340,
      "vul": 5341,
      "toss": 5342,
      "Any": 5343,
      "motionless": 5344,
      "literature": 5345,
      "pronounced": 5346,
      "Ty": 5347,
      "iddy": 5348,
      "holes": 5349,
      "igne": 5350,
      "hearted": 5351,
      "faced": 5352,
      "stayed": 5353,
      "lofty": 5354,
      "pour": 5355,
      "inher": 5356,
      "surface": 5357,
      "slain": 5358,
      "purse": 5359,
      "fearful": 5360,
      "patri": 5361,
      "ridicul": 5362,
      "exception": 5363,
      "Everything": 5364,
      "folk": 5365,
      "dart": 5366,
      "rag": 5367,
      "enka": 5368,
      "ulation": 5369,
      "brand": 5370,
      "merit": 5371,
      "century": 5372,
      "qualities": 5373,
      "folded": 5374,
      "Fisher": 5375,
      "snat": 5376,
      "thetic": 5377,
      "neâ": 5378,
      "lands": 5379,
      "lively": 5380,
      "humanity": 5381,
      "limbs": 5382,
      "poverty": 5383,
      "Ci": 5384,
      "PA": 5385,
      "isure": 5386,
      "acknowled": 5387,
      "acting": 5388,
      "uttering": 5389,
      "strongly": 5390,
      "Aust": 5391,
      "South": 5392,
      "cunt": 5393,
      "vir": 5394,
      "wake": 5395,
      "blows": 5396,
      "sighed": 5397,
      "Off": 5398,
      "echo": 5399,
      "sphere": 5400,
      "lords": 5401,
      "prisoners": 5402,
      "mutual": 5403,
      "rated": 5404,
      "sque": 5405,
      "nel": 5406,
      "corrup": 5407,
      "wondered": 5408,
      "Jew": 5409,
      "ACT": 5410,
      "Hath": 5411,
      "OK": 5412,
      "pap": 5413,
      "chin": 5414,
      "duties": 5415,
      "plans": 5416,
      "havenâ": 5417,
      "Javert": 5418,
      "schol": 5419,
      "alarmed": 5420,
      "medic": 5421,
      "striking": 5422,
      "apping": 5423,
      "nya": 5424,
      "graph": 5425,
      "performance": 5426,
      "PER": 5427,
      "mount": 5428,
      "uries": 5429,
      "rec": 5430,
      "shri": 5431,
      "foe": 5432,
      "prim": 5433,
      "torn": 5434,
      "victim": 5435,
      "People": 5436,
      "physician": 5437,
      "Bag": 5438,
      "_P": 5439,
      "absent": 5440,
      "counted": 5441,
      "aws": 5442,
      "building": 5443,
      "Troj": 5444,
      "plenty": 5445,
      "annoy": 5446,
      "mamma": 5447,
      "leisure": 5448,
      "suspected": 5449,
      "honourable": 5450,
      "departed": 5451,
      "eagerly": 5452,
      "publ": 5453,
      "Ir": 5454,
      "MÃ": 5455,
      "Mag": 5456,
      "jac": 5457,
      "ya": 5458,
      "begins": 5459,
      "midnight": 5460,
      "Speak": 5461,
      "slipped": 5462,
      "HN": 5463,
      "Night": 5464,
      "pas": 5465,
      "insult": 5466,
      "reign": 5467,
      "novel": 5468,
      "owe": 5469,
      "marks": 5470,
      "solid": 5471,
      "insisted": 5472,
      "summon": 5473,
      "freely": 5474,
      "obedience": 5475,
      "AU": 5476,
      "Bro": 5477,
      "CLO": 5478,
      "cunning": 5479,
      "improve": 5480,
      "hunger": 5481,
      "stepped": 5482,
      "applied": 5483,
      "orâ": 5484,
      "cep": 5485,
      "inton": 5486,
      "intense": 5487,
      "visions": 5488,
      "visited": 5489,
      "divers": 5490,
      "drum": 5491,
      "Spirit": 5492,
      "commit": 5493,
      "causes": 5494,
      "frequent": 5495,
      "Bucket": 5496,
      "Fair": 5497,
      "Rod": 5498,
      "Tal": 5499,
      "attached": 5500,
      "trick": 5501,
      "brotherâ": 5502,
      "Def": 5503,
      "Sn": 5504,
      "Sy": 5505,
      "Vol": 5506,
      "rily": 5507,
      "perform": 5508,
      "firmed": 5509,
      "bese": 5510,
      "madness": 5511,
      "ecst": 5512,
      "Alice": 5513,
      "Ke": 5514,
      "ette": 5515,
      "performed": 5516,
      "rail": 5517,
      "interpret": 5518,
      "aterina": 5519,
      "throwing": 5520,
      "caution": 5521,
      "Cast": 5522,
      "depri": 5523,
      "END": 5524,
      "Ange": 5525,
      "remembr": 5526,
      "group": 5527,
      "Bou": 5528,
      "lÃ": 5529,
      "oy": 5530,
      "cean": 5531,
      "trous": 5532,
      "final": 5533,
      "masters": 5534,
      "defence": 5535,
      "sensation": 5536,
      "clergy": 5537,
      "exhausted": 5538,
      "voyage": 5539,
      "thereby": 5540,
      "mental": 5541,
      "obtain": 5542,
      "ANTON": 5543,
      "audience": 5544,
      "correct": 5545,
      "Katerina": 5546,
      "nsk": 5547,
      "encour": 5548,
      "amiable": 5549,
      "preach": 5550,
      "market": 5551,
      "finish": 5552,
      "shock": 5553,
      "drops": 5554,
      "vidence": 5555,
      "000": 5556,
      "sufficiently": 5557,
      "JOHN": 5558,
      "Mart": 5559,
      "rang": 5560,
      "doctr": 5561,
      "owner": 5562,
      "lightning": 5563,
      "heartily": 5564,
      "warrant": 5565,
      "hills": 5566,
      "disturb": 5567,
      "offee": 5568,
      "fatig": 5569,
      "gift": 5570,
      "yards": 5571,
      "ona": 5572,
      "inging": 5573,
      "poems": 5574,
      "studied": 5575,
      "powder": 5576,
      "Suddenly": 5577,
      "whir": 5578,
      "vet": 5579,
      "verted": 5580,
      "poses": 5581,
      "Socrates": 5582,
      "barric": 5583,
      "Pip": 5584,
      "eous": 5585,
      "members": 5586,
      "wanting": 5587,
      "Holy": 5588,
      "polite": 5589,
      "DenÃ": 5590,
      "Petrov": 5591,
      "Meanwhile": 5592,
      "Could": 5593,
      "Next": 5594,
      "vity": 5595,
      "definite": 5596,
      "mod": 5597,
      "mock": 5598,
      "conceive": 5599,
      "180": 5600,
      "conditions": 5601,
      "grandfather": 5602,
      "persuaded": 5603,
      "Call": 5604,
      "Hor": 5605,
      "SIR": 5606,
      "Whe": 5607,
      "emed": 5608,
      "frow": 5609,
      "record": 5610,
      "itating": 5611,
      "hael": 5612,
      "monarch": 5613,
      "pleasures": 5614,
      "complex": 5615,
      "eleven": 5616,
      "principles": 5617,
      "Darcy": 5618,
      "Cand": 5619,
      "EM": 5620,
      "bears": 5621,
      "contained": 5622,
      "commander": 5623,
      "movements": 5624,
      "virtues": 5625,
      "consequently": 5626,
      "endeavour": 5627,
      "Thomas": 5628,
      "Gentle": 5629,
      "err": 5630,
      "pear": 5631,
      "managed": 5632,
      "doom": 5633,
      "shaw": 5634,
      "stories": 5635,
      "size": 5636,
      "scen": 5637,
      "commonly": 5638,
      "satisf": 5639,
      "including": 5640,
      "funeral": 5641,
      "descend": 5642,
      "Grace": 5643,
      "Hence": 5644,
      "Liz": 5645,
      "ox": 5646,
      "level": 5647,
      "staring": 5648,
      "stomach": 5649,
      "figures": 5650,
      "description": 5651,
      "Greece": 5652,
      "lucky": 5653,
      "Has": 5654,
      "Isa": 5655,
      "ape": 5656,
      "nig": 5657,
      "heap": 5658,
      "urs": 5659,
      "Roy": 5660,
      "divided": 5661,
      "opera": 5662,
      "Paul": 5663,
      "Other": 5664,
      "WIL": 5665,
      "_As": 5666,
      "frank": 5667,
      "silly": 5668,
      "retire": 5669,
      "rier": 5670,
      "consu": 5671,
      "tells": 5672,
      "gets": 5673,
      "immediate": 5674,
      "North": 5675,
      "enjoyment": 5676,
      "Dorian": 5677,
      "trembled": 5678,
      "cam": 5679,
      "coffee": 5680,
      "resh": 5681,
      "unted": 5682,
      "lovers": 5683,
      "letâ": 5684,
      "emer": 5685,
      "addressing": 5686,
      "Court": 5687,
      "Homer": 5688,
      "Jose": 5689,
      "Lor": 5690,
      "LUC": 5691,
      "Res": 5692,
      "cease": 5693,
      "female": 5694,
      "joke": 5695,
      "corn": 5696,
      "speaks": 5697,
      "oses": 5698,
      "uneas": 5699,
      "queer": 5700,
      "successful": 5701,
      "11": 5702,
      "Chi": 5703,
      "gam": 5704,
      "lap": 5705,
      "heir": 5706,
      "ential": 5707,
      "illust": 5708,
      "Pan": 5709,
      "vern": 5710,
      "hereâ": 5711,
      "commission": 5712,
      "holds": 5713,
      "related": 5714,
      "mourn": 5715,
      "Joseph": 5716,
      "Fr": 5717,
      "east": 5718,
      "coast": 5719,
      "contradic": 5720,
      "pse": 5721,
      "zing": 5722,
      "beam": 5723,
      "prevented": 5724,
      "cardinal": 5725,
      "established": 5726,
      "conviction": 5727,
      "spiritual": 5728,
      "dirty": 5729,
      "weed": 5730,
      "pluck": 5731,
      "moreover": 5732,
      "blaz": 5733,
      "prey": 5734,
      "kingâ": 5735,
      "laying": 5736,
      "erousse": 5737,
      "Caderousse": 5738,
      "Bart": 5739,
      "Phi": 5740,
      "bows": 5741,
      "hated": 5742,
      "utions": 5743,
      "inea": 5744,
      "seriously": 5745,
      "north": 5746,
      "ugged": 5747,
      "rude": 5748,
      "affli": 5749,
      "Make": 5750,
      "agony": 5751,
      "convent": 5752,
      "staircase": 5753,
      "firmly": 5754,
      "assumed": 5755,
      "Mill": 5756,
      "bred": 5757,
      "eloqu": 5758,
      "iet": 5759,
      "heed": 5760,
      "vels": 5761,
      "amond": 5762,
      "farewell": 5763,
      "condemned": 5764,
      "batt": 5765,
      "narr": 5766,
      "vac": 5767,
      "vant": 5768,
      "quant": 5769,
      "posit": 5770,
      "ugly": 5771,
      "wooden": 5772,
      "favourite": 5773,
      "Should": 5774,
      "destruction": 5775,
      "LY": 5776,
      "mand": 5777,
      "ride": 5778,
      "thread": 5779,
      "shone": 5780,
      "disgu": 5781,
      "merchant": 5782,
      "valiant": 5783,
      "closely": 5784,
      "Negro": 5785,
      "deserted": 5786,
      "leaned": 5787,
      "knocked": 5788,
      "hideous": 5789,
      "combat": 5790,
      "destroyed": 5791,
      "engagement": 5792,
      "Ire": 5793,
      "MA": 5794,
      "rim": 5795,
      "uncertain": 5796,
      "mode": 5797,
      "diamond": 5798,
      "porter": 5799,
      "Colonel": 5800,
      "Profess": 5801,
      "iÃ": 5802,
      "ouch": 5803,
      "hears": 5804,
      "wearing": 5805,
      "whither": 5806,
      "perplex": 5807,
      "cio": 5808,
      "torment": 5809,
      "extended": 5810,
      "effects": 5811,
      "fighting": 5812,
      "?'": 5813,
      "dancing": 5814,
      "hadnâ": 5815,
      "accompany": 5816,
      "tie": 5817,
      "kinds": 5818,
      "plays": 5819,
      "TION": 5820,
      "prepare": 5821,
      "BOOK": 5822,
      "observation": 5823,
      "indifferent": 5824,
      "Hester": 5825,
      "IP": 5826,
      "Sam": 5827,
      "west": 5828,
      "peep": 5829,
      "ctive": 5830,
      "apple": 5831,
      "heavenly": 5832,
      "vanity": 5833,
      "dining": 5834,
      "Spanish": 5835,
      "Gen": 5836,
      "Hold": 5837,
      "Sure": 5838,
      "inations": 5839,
      "magnificent": 5840,
      "BEL": 5841,
      "List": 5842,
      "Wa": 5843,
      "vile": 5844,
      "veil": 5845,
      "notwithstanding": 5846,
      "illness": 5847,
      "propri": 5848,
      "major": 5849,
      "Fern": 5850,
      "EPH": 5851,
      "Fau": 5852,
      "VOL": 5853,
      "plate": 5854,
      "finds": 5855,
      "Nevertheless": 5856,
      "Latin": 5857,
      "Mal": 5858,
      "cough": 5859,
      "ensible": 5860,
      "brary": 5861,
      "commanded": 5862,
      "chairs": 5863,
      "travel": 5864,
      "breathing": 5865,
      "ceremony": 5866,
      "nin": 5867,
      "nic": 5868,
      "roar": 5869,
      "motions": 5870,
      "whatsoever": 5871,
      "umes": 5872,
      "ville": 5873,
      "remaining": 5874,
      "control": 5875,
      "Aug": 5876,
      "Bal": 5877,
      "rase": 5878,
      "ishes": 5879,
      "warning": 5880,
      "fastened": 5881,
      "grees": 5882,
      "intimate": 5883,
      "Honour": 5884,
      "Ko": 5885,
      "a_": 5886,
      "hit": 5887,
      "remed": 5888,
      "envelo": 5889,
      "consult": 5890,
      "Think": 5891,
      "inev": 5892,
      "guilt": 5893,
      "decision": 5894,
      "slightest": 5895,
      "Sonia": 5896,
      "Greg": 5897,
      "san": 5898,
      "rocks": 5899,
      "dome": 5900,
      "prosper": 5901,
      "keeps": 5902,
      "interests": 5903,
      "numbers": 5904,
      "gesture": 5905,
      "excellency": 5906,
      "adventures": 5907,
      "abandoned": 5908,
      "absorbed": 5909,
      "poured": 5910,
      "inction": 5911,
      "saint": 5912,
      "perf": 5913,
      "wolf": 5914,
      "angle": 5915,
      "Gods": 5916,
      "anguish": 5917,
      "expense": 5918,
      "substance": 5919,
      "Mel": 5920,
      "Pad": 5921,
      "soo": 5922,
      "indis": 5923,
      "proble": 5924,
      "ification": 5925,
      "Majesty": 5926,
      "vulgar": 5927,
      "_Aside": 5928,
      "Er": 5929,
      "Wha": 5930,
      "antry": 5931,
      "refresh": 5932,
      "tram": 5933,
      "forever": 5934,
      "smart": 5935,
      "household": 5936,
      "repent": 5937,
      "mischief": 5938,
      "portra": 5939,
      "creation": 5940,
      "separate": 5941,
      "Matty": 5942,
      "nations": 5943,
      "sway": 5944,
      "sire": 5945,
      "yonder": 5946,
      "rib": 5947,
      "overwhel": 5948,
      "domest": 5949,
      "coffin": 5950,
      "PO": 5951,
      "mile": 5952,
      "pig": 5953,
      "prose": 5954,
      "cian": 5955,
      "parties": 5956,
      "cester": 5957,
      "masterâ": 5958,
      "wishing": 5959,
      "extrem": 5960,
      "Juli": 5961,
      "literary": 5962,
      "ridiculous": 5963,
      "Black": 5964,
      "El": 5965,
      "Huck": 5966,
      "pitch": 5967,
      "recalled": 5968,
      "adj": 5969,
      "degrees": 5970,
      "meantime": 5971,
      "quires": 5972,
      "steel": 5973,
      "sounded": 5974,
      "patron": 5975,
      "lovna": 5976,
      "Fernand": 5977,
      "Get": 5978,
      "sang": 5979,
      "rival": 5980,
      "acquired": 5981,
      "abrupt": 5982,
      "offended": 5983,
      "tonight": 5984,
      "slightly": 5985,
      "American": 5986,
      "Lad": 5987,
      "lonely": 5988,
      "tune": 5989,
      "inated": 5990,
      "meal": 5991,
      "beating": 5992,
      "forces": 5993,
      "sore": 5994,
      "soil": 5995,
      "solitary": 5996,
      "winds": 5997,
      "tomb": 5998,
      "occasionally": 5999,
      "changing": 6000,
      "Mac": 6001,
      "nois": 6002,
      "dearest": 6003,
      "gos": 6004,
      "awak": 6005,
      "attach": 6006,
      "virtuous": 6007,
      "exceedingly": 6008,
      "Gup": 6009,
      "sober": 6010,
      "keys": 6011,
      "happily": 6012,
      "genu": 6013,
      "husbandâ": 6014,
      "inclination": 6015,
      "conducted": 6016,
      "Max": 6017,
      "Pre": 6018,
      "cig": 6019,
      "rear": 6020,
      "notion": 6021,
      "constru": 6022,
      "beings": 6023,
      "cerf": 6024,
      "happens": 6025,
      "badly": 6026,
      "observing": 6027,
      "linen": 6028,
      "wounds": 6029,
      "Morcerf": 6030,
      "alike": 6031,
      "precisely": 6032,
      "Guppy": 6033,
      "Av": 6034,
      "Know": 6035,
      "Must": 6036,
      "Van": 6037,
      "repose": 6038,
      "hem": 6039,
      "pel": 6040,
      "conj": 6041,
      "ounded": 6042,
      "spa": 6043,
      "throne": 6044,
      "expecting": 6045,
      "considering": 6046,
      "fortunately": 6047,
      "Hy": 6048,
      "Smer": 6049,
      "dawn": 6050,
      "mult": 6051,
      "wink": 6052,
      "secur": 6053,
      "charms": 6054,
      "disagreeable": 6055,
      "expectation": 6056,
      "incident": 6057,
      "vanished": 6058,
      "numerous": 6059,
      "accordingly": 6060,
      "probable": 6061,
      "Christmas": 6062,
      "Whether": 6063,
      "Candide": 6064,
      "cave": 6065,
      "fires": 6066,
      "pian": 6067,
      "ensu": 6068,
      "iring": 6069,
      "neat": 6070,
      "conom": 6071,
      "disgust": 6072,
      "risk": 6073,
      "larger": 6074,
      "pretended": 6075,
      "depths": 6076,
      "describe": 6077,
      "remembrance": 6078,
      "!...": 6079,
      "sevent": 6080,
      "stat": 6081,
      "acks": 6082,
      "Nove": 6083,
      "appet": 6084,
      "Does": 6085,
      "announced": 6086,
      "Sto": 6087,
      "Vin": 6088,
      "fic": 6089,
      "thief": 6090,
      "conject": 6091,
      "conceived": 6092,
      "butter": 6093,
      "shif": 6094,
      "jected": 6095,
      "accomplished": 6096,
      "Rochester": 6097,
      "Smerdy": 6098,
      "ium": 6099,
      "roman": 6100,
      "sheet": 6101,
      "ilities": 6102,
      "headed": 6103,
      "prompt": 6104,
      "indignation": 6105,
      "Nik": 6106,
      "iti": 6107,
      "indust": 6108,
      "Soon": 6109,
      "Ada": 6110,
      "Freder": 6111,
      "Smerdyakov": 6112,
      "DON": 6113,
      "Frank": 6114,
      "_To": 6115,
      "rice": 6116,
      "dete": 6117,
      "ulate": 6118,
      "bru": 6119,
      "pathetic": 6120,
      "returns": 6121,
      "ladyship": 6122,
      "deserve": 6123,
      "LADY": 6124,
      "furnished": 6125,
      "chimney": 6126,
      "Luc": 6127,
      "ois": 6128,
      "chose": 6129,
      "urged": 6130,
      "article": 6131,
      "lessness": 6132,
      "Being": 6133,
      "warnâ": 6134,
      "protection": 6135,
      "Vir": 6136,
      "inner": 6137,
      "older": 6138,
      "scrup": 6139,
      "princes": 6140,
      "Countess": 6141,
      "basket": 6142,
      "machus": 6143,
      "amazement": 6144,
      "30": 6145,
      "lime": 6146,
      "liqu": 6147,
      "unpleasant": 6148,
      "appl": 6149,
      "avis": 6150,
      "wax": 6151,
      "particulars": 6152,
      "resolute": 6153,
      "message": 6154,
      "ider": 6155,
      "selfish": 6156,
      "lieutenant": 6157,
      "sentiments": 6158,
      "Dorothy": 6159,
      "Maxim": 6160,
      "appetite": 6161,
      "lus": 6162,
      "error": 6163,
      "restrain": 6164,
      "agitation": 6165,
      "shield": 6166,
      "prophe": 6167,
      "whereof": 6168,
      "glit": 6169,
      "anches": 6170,
      "maintain": 6171,
      "recognize": 6172,
      "Alexandrovna": 6173,
      "universal": 6174,
      "Tru": 6175,
      "caval": 6176,
      "trum": 6177,
      "disci": 6178,
      "type": 6179,
      "horiz": 6180,
      "roads": 6181,
      "ulture": 6182,
      "August": 6183,
      "fought": 6184,
      "pest": 6185,
      "bewild": 6186,
      "chÃ": 6187,
      "teau": 6188,
      "exhi": 6189,
      "flour": 6190,
      "newspa": 6191,
      "difficulties": 6192,
      "thirst": 6193,
      "persuade": 6194,
      "oil": 6195,
      "ocean": 6196,
      "traged": 6197,
      "arrive": 6198,
      "khov": 6199,
      "Kar": 6200,
      "Mess": 6201,
      "visitor": 6202,
      "cultiv": 6203,
      "debt": 6204,
      "gifts": 6205,
      "Red": 6206,
      "ae": 6207,
      "somehow": 6208,
      "downstairs": 6209,
      "ublic": 6210,
      "solitude": 6211,
      "Grim": 6212,
      "murdered": 6213,
      "embraced": 6214,
      "Professor": 6215,
      "NO": 6216,
      "cured": 6217,
      "hea": 6218,
      "poem": 6219,
      "dish": 6220,
      "ubb": 6221,
      "doubtless": 6222,
      "constantly": 6223,
      "Greeks": 6224,
      "attracted": 6225,
      "Cath": 6226,
      "lls": 6227,
      "wives": 6228,
      "fron": 6229,
      "Pole": 6230,
      "transport": 6231,
      "strangers": 6232,
      "enthusias": 6233,
      "Frederick": 6234,
      "Dres": 6235,
      "Raz": 6236,
      "pg": 6237,
      "ora": 6238,
      "charity": 6239,
      "ladyâ": 6240,
      "wifeâ": 6241,
      "wondering": 6242,
      "burned": 6243,
      "neighbourhood": 6244,
      "niece": 6245,
      "Lorry": 6246,
      "bou": 6247,
      "valley": 6248,
      "inous": 6249,
      "losing": 6250,
      "asser": 6251,
      "daylight": 6252,
      "Stand": 6253,
      "inhabitants": 6254,
      "lantern": 6255,
      "Four": 6256,
      "Spain": 6257,
      "Script": 6258,
      "gor": 6259,
      "represented": 6260,
      "envy": 6261,
      "alled": 6262,
      "lasting": 6263,
      "centre": 6264,
      "inquiry": 6265,
      "issue": 6266,
      "genuine": 6267,
      "Dresden": 6268,
      "jpg": 6269,
      "toil": 6270,
      "heels": 6271,
      "feed": 6272,
      "exper": 6273,
      "brings": 6274,
      "scand": 6275,
      "south": 6276,
      "uniform": 6277,
      "separated": 6278,
      "earnestly": 6279,
      "esteem": 6280,
      "Neither": 6281,
      "pent": 6282,
      "rease": 6283,
      "branches": 6284,
      "patch": 6285,
      "characters": 6286,
      "Grush": 6287,
      "feeble": 6288,
      "distinctly": 6289,
      "anticip": 6290,
      "cottage": 6291,
      "Snags": 6292,
      "DO": 6293,
      "mul": 6294,
      "wer": 6295,
      "wen": 6296,
      "forgiven": 6297,
      "dol": 6298,
      "whereas": 6299,
      "glancing": 6300,
      "udge": 6301,
      "phrase": 6302,
      "ruined": 6303,
      "maiden": 6304,
      "eaten": 6305,
      "constitution": 6306,
      "devotion": 6307,
      "habits": 6308,
      "Raoul": 6309,
      "Snagsby": 6310,
      "inity": 6311,
      "belly": 6312,
      "boats": 6313,
      "bliss": 6314,
      "tya": 6315,
      "letting": 6316,
      "lightly": 6317,
      "color": 6318,
      "Martin": 6319,
      "50": 6320,
      "Card": 6321,
      "Uni": 6322,
      "Word": 6323,
      "thanked": 6324,
      "awk": 6325,
      "lication": 6326,
      "corpse": 6327,
      "Herbert": 6328,
      "admired": 6329,
      "Pope": 6330,
      "remarks": 6331,
      "knights": 6332,
      "preserved": 6333,
      ".[": 6334,
      "ITH": 6335,
      "bee": 6336,
      "lick": 6337,
      "quitted": 6338,
      "trace": 6339,
      "appreci": 6340,
      "commod": 6341,
      "hotel": 6342,
      "confident": 6343,
      "blessing": 6344,
      "rooge": 6345,
      "Scrooge": 6346,
      "enthusiasm": 6347,
      "Cal": 6348,
      "Mil": 6349,
      "Mist": 6350,
      "Pav": 6351,
      "Wend": 6352,
      "mast": 6353,
      "swore": 6354,
      "supre": 6355,
      "peril": 6356,
      "readily": 6357,
      "capacity": 6358,
      "vili": 6359,
      "driving": 6360,
      "stroke": 6361,
      "lodg": 6362,
      "Bennet": 6363,
      "innocence": 6364,
      "obeyed": 6365,
      "Fath": 6366,
      "lordship": 6367,
      "explo": 6368,
      "mirror": 6369,
      "practical": 6370,
      "beasts": 6371,
      "rules": 6372,
      "Author": 6373,
      "Irish": 6374,
      "Fathom": 6375,
      "BY": 6376,
      "Cont": 6377,
      "aus": 6378,
      "dine": 6379,
      "seÃ": 6380,
      "det": 6381,
      "decor": 6382,
      "feather": 6383,
      "anywhere": 6384,
      "179": 6385,
      "Barney": 6386,
      "privile": 6387,
      "punish": 6388,
      "Eve": 6389,
      "fant": 6390,
      "injustice": 6391,
      "recei": 6392,
      "oking": 6393,
      "yourselves": 6394,
      "silently": 6395,
      "hastened": 6396,
      "Grand": 6397,
      "ambition": 6398,
      "Scotland": 6399,
      "Judge": 6400,
      "advised": 6401,
      "Dedlock": 6402,
      "Hast": 6403,
      "sive": 6404,
      "receiving": 6405,
      "motive": 6406,
      "coarse": 6407,
      "rights": 6408,
      "Bell": 6409,
      "petition": 6410,
      "knock": 6411,
      "DÃ": 6412,
      "Tem": 6413,
      "fes": 6414,
      "jol": 6415,
      "mÃ": 6416,
      "button": 6417,
      "cris": 6418,
      "Peace": 6419,
      "citizens": 6420,
      "invisible": 6421,
      "ingen": 6422,
      "disappointment": 6423,
      "vesti": 6424,
      "bedroom": 6425,
      "pleasing": 6426,
      "distinction": 6427,
      "frightful": 6428,
      "instrument": 6429,
      "preserve": 6430,
      "BETH": 6431,
      "Razum": 6432,
      "LORD": 6433,
      "tide": 6434,
      "vell": 6435,
      "library": 6436,
      "agues": 6437,
      "disdain": 6438,
      "heavily": 6439,
      "exerc": 6440,
      "jealousy": 6441,
      "monstrous": 6442,
      "cretion": 6443,
      "Michael": 6444,
      "CLOWN": 6445,
      "parting": 6446,
      "flag": 6447,
      "warri": 6448,
      "ESTER": 6449,
      "Although": 6450,
      "millions": 6451,
      "Listen": 6452,
      "Div": 6453,
      "paces": 6454,
      "official": 6455,
      "insist": 6456,
      "glasses": 6457,
      "poets": 6458,
      "lace": 6459,
      "sins": 6460,
      "disease": 6461,
      "cannon": 6462,
      "lesson": 6463,
      "torted": 6464,
      "bench": 6465,
      "valuable": 6466,
      "source": 6467,
      "Royal": 6468,
      "domestic": 6469,
      "MR": 6470,
      "Please": 6471,
      "Sav": 6472,
      "ware": 6473,
      "adise": 6474,
      "disappointed": 6475,
      "umm": 6476,
      "career": 6477,
      "wheels": 6478,
      "steep": 6479,
      "kneel": 6480,
      "inquire": 6481,
      "Green": 6482,
      "Faith": 6483,
      "beseech": 6484,
      "!'": 6485,
      "bark": 6486,
      "insol": 6487,
      "idents": 6488,
      "exposed": 6489,
      "steady": 6490,
      "earthly": 6491,
      "musical": 6492,
      "pursue": 6493,
      "shouting": 6494,
      "ACK": 6495,
      "rascal": 6496,
      "families": 6497,
      "involunt": 6498,
      "Razumi": 6499,
      "Linton": 6500,
      "Moses": 6501,
      "leness": 6502,
      "rels": 6503,
      "ranks": 6504,
      "maids": 6505,
      "pursuit": 6506,
      "puzz": 6507,
      "indifference": 6508,
      "Middle": 6509,
      "Bon": 6510,
      "GAR": 6511,
      "bay": 6512,
      "sworn": 6513,
      "permission": 6514,
      "bolt": 6515,
      "beggar": 6516,
      "passes": 6517,
      "sweep": 6518,
      "uously": 6519,
      "pockets": 6520,
      "states": 6521,
      "faults": 6522,
      "curse": 6523,
      "perfection": 6524,
      "fleet": 6525,
      "pillow": 6526,
      "permitted": 6527,
      "ROME": 6528,
      "medicine": 6529,
      "tent": 6530,
      "arise": 6531,
      "liament": 6532,
      "likes": 6533,
      "actor": 6534,
      "outward": 6535,
      "artist": 6536,
      "boast": 6537,
      "retain": 6538,
      "Noir": 6539,
      "current": 6540,
      "profit": 6541,
      "decide": 6542,
      "colonel": 6543,
      "logical": 6544,
      "washed": 6545,
      "Fyodorovitch": 6546,
      "impulse": 6547,
      "SER": 6548,
      "bind": 6549,
      "theory": 6550,
      "stal": 6551,
      "stretch": 6552,
      "alas": 6553,
      "ulc": 6554,
      "achie": 6555,
      "marble": 6556,
      "emperor": 6557,
      "compared": 6558,
      "purple": 6559,
      "increase": 6560,
      "breathe": 6561,
      "distinguish": 6562,
      "mixed": 6563,
      "develop": 6564,
      "BA": 6565,
      "Med": 6566,
      "dur": 6567,
      "tho": 6568,
      "thern": 6569,
      "aret": 6570,
      "conception": 6571,
      "brook": 6572,
      "fathers": 6573,
      "strangely": 6574,
      "endeavoured": 6575,
      "horizon": 6576,
      "whip": 6577,
      "fog": 6578,
      "Helen": 6579,
      "grin": 6580,
      "Russia": 6581,
      "econom": 6582,
      "hÃ": 6583,
      "honey": 6584,
      "tore": 6585,
      "arge": 6586,
      "vered": 6587,
      "detest": 6588,
      "trad": 6589,
      "series": 6590,
      "psy": 6591,
      "rightly": 6592,
      "interview": 6593,
      "presents": 6594,
      "barbar": 6595,
      "variety": 6596,
      "desert": 6597,
      "Alexander": 6598,
      "attacked": 6599,
      "relieved": 6600,
      "magistr": 6601,
      "dict": 6602,
      "Castle": 6603,
      "27": 6604,
      "Bel": 6605,
      "lam": 6606,
      "swo": 6607,
      "lee": 6608,
      "stable": 6609,
      "oused": 6610,
      "natured": 6611,
      "constit": 6612,
      "heroes": 6613,
      "conquer": 6614,
      "restored": 6615,
      "assurance": 6616,
      "trousers": 6617,
      "Bol": 6618,
      "Dash": 6619,
      "hint": 6620,
      "ued": 6621,
      "rosy": 6622,
      "estim": 6623,
      "species": 6624,
      "childhood": 6625,
      "harsh": 6626,
      "writings": 6627,
      "criminal": 6628,
      "changes": 6629,
      "awkward": 6630,
      "plot": 6631,
      "ral": 6632,
      "tles": 6633,
      "unusual": 6634,
      "chap": 6635,
      "songs": 6636,
      "wandering": 6637,
      "score": 6638,
      "satisfy": 6639,
      "Gard": 6640,
      "PRO": 6641,
      "Youn": 6642,
      "bending": 6643,
      "pens": 6644,
      "treach": 6645,
      "attain": 6646,
      "encounter": 6647,
      "canst": 6648,
      "Theyâ": 6649,
      "helpless": 6650,
      "cares": 6651,
      "kissing": 6652,
      "Providence": 6653,
      "compliment": 6654,
      "citizen": 6655,
      "daz": 6656,
      "naught": 6657,
      "remor": 6658,
      "saith": 6659,
      "neg": 6660,
      "confined": 6661,
      "willingly": 6662,
      "Whom": 6663,
      "string": 6664,
      "nah": 6665,
      "risen": 6666,
      "steam": 6667,
      "riding": 6668,
      "simplicity": 6669,
      "coachman": 6670,
      "recollection": 6671,
      "stuck": 6672,
      "rolling": 6673,
      "immortal": 6674,
      "ayed": 6675,
      "rah": 6676,
      "rows": 6677,
      "stopping": 6678,
      "visitors": 6679,
      "vivid": 6680,
      "Within": 6681,
      "icians": 6682,
      "physical": 6683,
      "brains": 6684,
      "dragged": 6685,
      "America": 6686,
      "Hark": 6687,
      "recall": 6688,
      "attempted": 6689,
      "positions": 6690,
      "shortly": 6691,
      "ALL": 6692,
      "sixty": 6693,
      "salt": 6694,
      "travelling": 6695,
      "revealed": 6696,
      "intellectual": 6697,
      "ROMEO": 6698,
      "Wr": 6699,
      "lend": 6700,
      "sket": 6701,
      "refr": 6702,
      "ceas": 6703,
      "utch": 6704,
      "moist": 6705,
      "otherâ": 6706,
      "flushed": 6707,
      "torture": 6708,
      "smiles": 6709,
      "sunshine": 6710,
      "student": 6711,
      "respectable": 6712,
      "murderer": 6713,
      "Hal": 6714,
      "NE": 6715,
      "Pyo": 6716,
      "awoke": 6717,
      "foun": 6718,
      "encourage": 6719,
      "procure": 6720,
      "civili": 6721,
      "leton": 6722,
      "wrink": 6723,
      "Star": 6724,
      "objection": 6725,
      "directions": 6726,
      "belonging": 6727,
      "Glou": 6728,
      "PRINCE": 6729,
      "Padre": 6730,
      "Pyotr": 6731,
      "TES": 6732,
      "uct": 6733,
      "nearest": 6734,
      "abled": 6735,
      "revolution": 6736,
      "barricade": 6737,
      "scenes": 6738,
      "quantity": 6739,
      "positively": 6740,
      "Gloucester": 6741,
      "None": 6742,
      "etern": 6743,
      "gas": 6744,
      "pink": 6745,
      "tot": 6746,
      "Its": 6747,
      "eyed": 6748,
      "curtain": 6749,
      "Something": 6750,
      "roubles": 6751,
      "proposal": 6752,
      "Turn": 6753,
      "mead": 6754,
      "riages": 6755,
      "load": 6756,
      "perpet": 6757,
      "sunk": 6758,
      "beaten": 6759,
      "Grushenka": 6760,
      "Fitz": 6761,
      "rout": 6762,
      "defect": 6763,
      "urer": 6764,
      "shill": 6765,
      "umble": 6766,
      "throughout": 6767,
      "passionate": 6768,
      "supported": 6769,
      "Whale": 6770,
      "Wendy": 6771,
      ");": 6772,
      "refer": 6773,
      "behalf": 6774,
      "activity": 6775,
      "appeal": 6776,
      "chapter": 6777,
      "feels": 6778,
      "steal": 6779,
      "favourable": 6780,
      "reflect": 6781,
      "harmony": 6782,
      "Serge": 6783,
      "reserved": 6784,
      "inspired": 6785,
      "saddle": 6786,
      "Doun": 6787,
      "rÃ": 6788,
      "grasp": 6789,
      "anche": 6790,
      "lasted": 6791,
      "wrought": 6792,
      "answers": 6793,
      "addy": 6794,
      "commands": 6795,
      "warmth": 6796,
      "invitation": 6797,
      "hypo": 6798,
      "Dounia": 6799,
      "Dou": 6800,
      "GU": 6801,
      "Pass": 6802,
      "lake": 6803,
      "oak": 6804,
      "wars": 6805,
      "excl": 6806,
      "subtle": 6807,
      "Ivanovitch": 6808,
      "nodded": 6809,
      "celebrated": 6810,
      "Razumihin": 6811,
      "Athen": 6812,
      "cards": 6813,
      "pred": 6814,
      "uge": 6815,
      "riel": 6816,
      "verses": 6817,
      "grounds": 6818,
      "SeÃ": 6819,
      "stirred": 6820,
      "Indian": 6821,
      "impatient": 6822,
      "shelter": 6823,
      "25": 6824,
      "Gill": 6825,
      "bath": 6826,
      "wits": 6827,
      "haz": 6828,
      "congrat": 6829,
      "tyran": 6830,
      "miser": 6831,
      "Dolly": 6832,
      "seeming": 6833,
      "secrets": 6834,
      "consequences": 6835,
      "swim": 6836,
      "scheme": 6837,
      "obstin": 6838,
      "Kate": 6839,
      "Tele": 6840,
      "date": 6841,
      "lou": 6842,
      "pine": 6843,
      "ana": 6844,
      "knowâ": 6845,
      "lessons": 6846,
      "wrapped": 6847,
      "entertained": 6848,
      "fasc": 6849,
      "wre": 6850,
      "iner": 6851,
      "access": 6852,
      "ulking": 6853,
      "tempor": 6854,
      "lsing": 6855,
      "bloom": 6856,
      "judged": 6857,
      "discussion": 6858,
      "bestowed": 6859,
      "pistol": 6860,
      "Wait": 6861,
      "remedy": 6862,
      "Havis": 6863,
      "Wel": 6864,
      "kÃ": 6865,
      "knot": 6866,
      "rings": 6867,
      "fox": 6868,
      "comed": 6869,
      "Helsing": 6870,
      "discharge": 6871,
      "woo": 6872,
      "burnt": 6873,
      "benevol": 6874,
      "tremble": 6875,
      "creep": 6876,
      "Adam": 6877,
      "elegant": 6878,
      "MRS": 6879,
      "Bing": 6880,
      "Sch": 6881,
      "Tit": 6882,
      "dies": 6883,
      "pant": 6884,
      "withdrew": 6885,
      "unken": 6886,
      "usions": 6887,
      "selfe": 6888,
      "reduced": 6889,
      "resting": 6890,
      "pretend": 6891,
      "reaching": 6892,
      "violently": 6893,
      "tumult": 6894,
      "piano": 6895,
      "Nikol": 6896,
      "Havisham": 6897,
      "Edin": 6898,
      "VER": 6899,
      "cket": 6900,
      "mare": 6901,
      "rus": 6902,
      "sending": 6903,
      "mechan": 6904,
      "united": 6905,
      "deceive": 6906,
      "dissol": 6907,
      "doubts": 6908,
      "signal": 6909,
      "factory": 6910,
      "supply": 6911,
      "Small": 6912,
      "squee": 6913,
      "Blif": 6914,
      "dumb": 6915,
      "eh": 6916,
      "leine": 6917,
      "confirmed": 6918,
      "shy": 6919,
      "tele": 6920,
      "puts": 6921,
      "walks": 6922,
      "Hereâ": 6923,
      "crossing": 6924,
      "maintained": 6925,
      "Moreover": 6926,
      "Young": 6927,
      "Blifil": 6928,
      "Di": 6929,
      "Ret": 6930,
      "pound": 6931,
      "ero": 6932,
      "errant": 6933,
      "solic": 6934,
      "sus": 6935,
      "resign": 6936,
      "sumption": 6937,
      "aneous": 6938,
      "starting": 6939,
      "graceful": 6940,
      "BERT": 6941,
      "convenient": 6942,
      "abandon": 6943,
      "obscure": 6944,
      "Oxf": 6945,
      "supreme": 6946,
      "Buck": 6947,
      "Cy": 6948,
      "Cons": 6949,
      "MAC": 6950,
      "witch": 6951,
      "thur": 6952,
      "alty": 6953,
      "tives": 6954,
      "comment": 6955,
      "dayâ": 6956,
      "club": 6957,
      "distri": 6958,
      "incred": 6959,
      "banks": 6960,
      "Madeleine": 6961,
      "granted": 6962,
      "prudence": 6963,
      "Apo": 6964,
      "East": 6965,
      "Gav": 6966,
      "Rose": 6967,
      "bone": 6968,
      "term": 6969,
      "blest": 6970,
      "drunken": 6971,
      "ponder": 6972,
      "axe": 6973,
      "confession": 6974,
      "prudent": 6975,
      "Brother": 6976,
      "pra": 6977,
      "tables": 6978,
      "enâ": 6979,
      "stif": 6980,
      "altered": 6981,
      "abund": 6982,
      "rav": 6983,
      "prodig": 6984,
      "oppress": 6985,
      "goddess": 6986,
      "destiny": 6987,
      "depth": 6988,
      "examine": 6989,
      "injury": 6990,
      "betrayed": 6991,
      "Subject": 6992,
      "Jesus": 6993,
      "28": 6994,
      "CAP": 6995,
      "acknowledge": 6996,
      "pool": 6997,
      "track": 6998,
      "commen": 6999,
      "White": 7000,
      "dislike": 7001,
      "glow": 7002,
      "ully": 7003,
      "aughter": 7004,
      "avag": 7005,
      "baron": 7006,
      "respects": 7007,
      "deserved": 7008,
      "galley": 7009,
      "arguments": 7010,
      "wander": 7011,
      "papa": 7012,
      "HE": 7013,
      "June": 7014,
      "ived": 7015,
      "pÃ": 7016,
      "xim": 7017,
      "arrested": 7018,
      "irts": 7019,
      "agitated": 7020,
      "icious": 7021,
      "aph": 7022,
      "sibility": 7023,
      "council": 7024,
      "scattered": 7025,
      "check": 7026,
      "duchess": 7027,
      "ventured": 7028,
      "hesitation": 7029,
      "towns": 7030,
      "pulling": 7031,
      "Bingley": 7032,
      "Cle": 7033,
      "Hill": 7034,
      "Up": 7035,
      "lun": 7036,
      "pave": 7037,
      "lev": 7038,
      "counts": 7039,
      "cleared": 7040,
      "easier": 7041,
      "imagin": 7042,
      "gravely": 7043,
      "malice": 7044,
      "eighteen": 7045,
      "occupation": 7046,
      "impatience": 7047,
      "Farewell": 7048,
      "compelled": 7049,
      "Ghost": 7050,
      "POL": 7051,
      "WARD": 7052,
      "bend": 7053,
      "tid": 7054,
      "asks": 7055,
      "org": 7056,
      "ids": 7057,
      "antine": 7058,
      "earlier": 7059,
      "angrily": 7060,
      "misfortunes": 7061,
      "accent": 7062,
      "studies": 7063,
      "amazed": 7064,
      "plunged": 7065,
      "clergyman": 7066,
      "wave": 7067,
      "illum": 7068,
      "Andrea": 7069,
      "offering": 7070,
      "version": 7071,
      "Arthur": 7072,
      "approve": 7073,
      "coloured": 7074,
      "paying": 7075,
      "smoking": 7076,
      "Romeo": 7077,
      "complexion": 7078,
      "portrait": 7079,
      "isl": 7080,
      "aly": 7081,
      ",": 7082,
      "butt": 7083,
      "exclam": 7084,
      "elbow": 7085,
      "bray": 7086,
      "previously": 7087,
      "flames": 7088,
      "IND": 7089,
      "hoping": 7090,
      "communication": 7091,
      "Petrovitch": 7092,
      "COR": 7093,
      "ially": 7094,
      "oted": 7095,
      "ino": 7096,
      "disorder": 7097,
      "bler": 7098,
      "blance": 7099,
      "desk": 7100,
      "armour": 7101,
      "spiration": 7102,
      "lovitch": 7103,
      "amusement": 7104,
      "dun": 7105,
      "mered": 7106,
      "sne": 7107,
      "leaf": 7108,
      "roche": 7109,
      "amused": 7110,
      "articles": 7111,
      "therein": 7112,
      "ishâ": 7113,
      "adding": 7114,
      "hunting": 7115,
      "LEON": 7116,
      "leader": 7117,
      "belongs": 7118,
      "extravag": 7119,
      "Grimaud": 7120,
      "SERV": 7121,
      "HER": 7122,
      "Sp": 7123,
      "lum": 7124,
      "remove": 7125,
      "encoun": 7126,
      "esy": 7127,
      "union": 7128,
      "dew": 7129,
      "scrat": 7130,
      "Civill": 7131,
      "multitude": 7132,
      "Pavlovitch": 7133,
      "remorse": 7134,
      "SI": 7135,
      "resis": 7136,
      "goods": 7137,
      "landlady": 7138,
      "barber": 7139,
      "deadly": 7140,
      "admire": 7141,
      "sadly": 7142,
      "bitterly": 7143,
      "messenger": 7144,
      "abbÃ": 7145,
      "Defarge": 7146,
      "Gavroche": 7147,
      "24": 7148,
      "FORD": 7149,
      "NON": 7150,
      "mick": 7151,
      "ray": 7152,
      "sey": 7153,
      "loaded": 7154,
      "scound": 7155,
      "throng": 7156,
      "ChÃ": 7157,
      "reluct": 7158,
      "Letâ": 7159,
      "prayed": 7160,
      "proceeding": 7161,
      "calmly": 7162,
      "loudly": 7163,
      "eldest": 7164,
      "_I_": 7165,
      "Sergey": 7166,
      "Bur": 7167,
      "BLO": 7168,
      "lance": 7169,
      "ern": 7170,
      "reminded": 7171,
      "deaf": 7172,
      "sable": 7173,
      "ication": 7174,
      "brass": 7175,
      "swept": 7176,
      "tower": 7177,
      "elsewhere": 7178,
      "honours": 7179,
      "printed": 7180,
      "........": 7181,
      "trusted": 7182,
      "gallant": 7183,
      "convul": 7184,
      "injured": 7185,
      "aggers": 7186,
      "remote": 7187,
      "weapon": 7188,
      "summoned": 7189,
      "Dulc": 7190,
      "rash": 7191,
      "rele": 7192,
      "demo": 7193,
      "handle": 7194,
      "ladder": 7195,
      "submit": 7196,
      "honoured": 7197,
      "Second": 7198,
      "enterpr": 7199,
      "Remember": 7200,
      "guards": 7201,
      "guns": 7202,
      "entertainment": 7203,
      "Hannah": 7204,
      "LAND": 7205,
      "cen": 7206,
      "lict": 7207,
      "worry": 7208,
      "tyrant": 7209,
      "subs": 7210,
      "talent": 7211,
      "park": 7212,
      "services": 7213,
      "fools": 7214,
      "lotte": 7215,
      "lodging": 7216,
      "cellar": 7217,
      "Down": 7218,
      "Mur": 7219,
      "remind": 7220,
      "saving": 7221,
      "beds": 7222,
      "Prophe": 7223,
      "Carol": 7224,
      "dwelling": 7225,
      "scholar": 7226,
      "Jer": 7227,
      "Last": 7228,
      "bat": 7229,
      "kespe": 7230,
      "reception": 7231,
      "seize": 7232,
      "levent": 7233,
      "horrid": 7234,
      "traveller": 7235,
      "teaching": 7236,
      "UNT": 7237,
      "comparison": 7238,
      "BRU": 7239,
      "JU": 7240,
      "School": 7241,
      "Tulking": 7242,
      "bi": 7243,
      "fired": 7244,
      "nt": 7245,
      "rut": 7246,
      "asper": 7247,
      "withdraw": 7248,
      "onet": 7249,
      "clasped": 7250,
      "presu": 7251,
      "preferred": 7252,
      "ENCE": 7253,
      "Prussi": 7254,
      "safely": 7255,
      "employment": 7256,
      "hurriedly": 7257,
      "preceding": 7258,
      "swallowed": 7259,
      "Fortune": 7260,
      "HELMER": 7261,
      "lodgings": 7262,
      "Cass": 7263,
      "HIS": 7264,
      "nigh": 7265,
      "zes": 7266,
      "aration": 7267,
      "leather": 7268,
      "upright": 7269,
      "opposition": 7270,
      "stole": 7271,
      "tales": 7272,
      "leads": 7273,
      "youthful": 7274,
      "sailor": 7275,
      "wandered": 7276,
      "BorÃ": 7277,
      "recommend": 7278,
      "bachel": 7279,
      "shepherd": 7280,
      "OTHE": 7281,
      "Pas": 7282,
      "Pur": 7283,
      "ahead": 7284,
      "seed": 7285,
      "tery": 7286,
      "unlike": 7287,
      "earl": 7288,
      "closing": 7289,
      "robbed": 7290,
      "Against": 7291,
      "intervals": 7292,
      "adopted": 7293,
      "security": 7294,
      "26": 7295,
      "cÃ": 7296,
      "ghter": 7297,
      "irresis": 7298,
      "sale": 7299,
      "saidâ": 7300,
      "scarlet": 7301,
      "eagerness": 7302,
      "guessed": 7303,
      "roused": 7304,
      "doctrine": 7305,
      "Dashwood": 7306,
      "BEN": 7307,
      "CI": 7308,
      "Egy": 7309,
      "SON": 7310,
      "_D": 7311,
      "nment": 7312,
      "sly": 7313,
      "deeper": 7314,
      "wouldst": 7315,
      "flash": 7316,
      "childish": 7317,
      "peopleâ": 7318,
      "generation": 7319,
      "advise": 7320,
      "punished": 7321,
      "Earth": 7322,
      "inferior": 7323,
      "uneasiness": 7324,
      "Fauche": 7325,
      "Cec": 7326,
      "FOR": 7327,
      "jam": 7328,
      "inch": 7329,
      "ands": 7330,
      "ald": 7331,
      "suitors": 7332,
      "contents": 7333,
      "avy": 7334,
      "caress": 7335,
      "thousands": 7336,
      "penny": 7337,
      "enjoying": 7338,
      "hiding": 7339,
      "yielded": 7340,
      "tiny": 7341,
      "preparing": 7342,
      "Trojan": 7343,
      "Ireland": 7344,
      "FO": 7345,
      "bours": 7346,
      "haught": 7347,
      "chas": 7348,
      "erect": 7349,
      "nerves": 7350,
      "crushed": 7351,
      "USE": 7352,
      "traitor": 7353,
      "examination": 7354,
      "reverence": 7355,
      "apprehension": 7356,
      "neglected": 7357,
      "Fauchelevent": 7358,
      "Put": 7359,
      "aver": 7360,
      "ials": 7361,
      "puff": 7362,
      "wn": 7363,
      "herâ": 7364,
      "lio": 7365,
      "decent": 7366,
      "ilgrim": 7367,
      "offices": 7368,
      "jewel": 7369,
      "fortnight": 7370,
      "relate": 7371,
      "suming": 7372,
      "appearing": 7373,
      "178": 7374,
      "tenderly": 7375,
      "advantages": 7376,
      "threatened": 7377,
      "Cousin": 7378,
      "damp": 7379,
      "daring": 7380,
      "incapable": 7381,
      "isk": 7382,
      "roses": 7383,
      "detail": 7384,
      "flowing": 7385,
      "bargain": 7386,
      "hesitated": 7387,
      "sisterâ": 7388,
      "apply": 7389,
      "Gray": 7390,
      "Edmond": 7391,
      "balls": 7392,
      "admirable": 7393,
      "deprived": 7394,
      "awakened": 7395,
      "Away": 7396,
      "Afri": 7397,
      "Lion": 7398,
      "Sk": 7399,
      "Vas": 7400,
      "cared": 7401,
      "pite": 7402,
      "stic": 7403,
      "suitable": 7404,
      "derived": 7405,
      "Aristo": 7406,
      "believing": 7407,
      "spoil": 7408,
      "refuge": 7409,
      "Quite": 7410,
      "answering": 7411,
      "cutting": 7412,
      "vices": 7413,
      "affections": 7414,
      "valet": 7415,
      "travelled": 7416,
      "affectionate": 7417,
      "translation": 7418,
      "independent": 7419,
      "consolation": 7420,
      "Vincy": 7421,
      "BRUTUS": 7422,
      "23": 7423,
      "GENT": 7424,
      "fow": 7425,
      "mmick": 7426,
      "pall": 7427,
      "swords": 7428,
      "es_": 7429,
      "extingu": 7430,
      "dismay": 7431,
      "opposed": 7432,
      "Wemmick": 7433,
      "tempest": 7434,
      "humili": 7435,
      "existed": 7436,
      "funny": 7437,
      "sailors": 7438,
      "ISTRESS": 7439,
      "bishop": 7440,
      "tread": 7441,
      "vÃ": 7442,
      "ini": 7443,
      "attained": 7444,
      "tories": 7445,
      "lokhov": 7446,
      "contain": 7447,
      "ensions": 7448,
      "purposes": 7449,
      "Really": 7450,
      "repeating": 7451,
      "honesty": 7452,
      "politics": 7453,
      "collected": 7454,
      "slavery": 7455,
      "radiant": 7456,
      "romantic": 7457,
      "Noirtier": 7458,
      "Este": 7459,
      "groom": 7460,
      "jury": 7461,
      "patter": 7462,
      "permit": 7463,
      "hereafter": 7464,
      "stool": 7465,
      "denied": 7466,
      "namely": 7467,
      "generosity": 7468,
      "startled": 7469,
      "ilian": 7470,
      "hospit": 7471,
      "prevailed": 7472,
      "BLOOM": 7473,
      "LLO": 7474,
      "fits": 7475,
      "termin": 7476,
      "hore": 7477,
      "cane": 7478,
      "contrast": 7479,
      "measures": 7480,
      "intentions": 7481,
      ";\"": 7482,
      "Bless": 7483,
      "Mis": 7484,
      "gâ": 7485,
      "esc": 7486,
      "holid": 7487,
      "tax": 7488,
      "OLD": 7489,
      "students": 7490,
      "tongues": 7491,
      "reflections": 7492,
      "crept": 7493,
      "ROSAL": 7494,
      "tragedy": 7495,
      "PAT": 7496,
      "seal": 7497,
      "medical": 7498,
      "brid": 7499,
      "Anti": 7500,
      "mothers": 7501,
      "colours": 7502,
      "confessed": 7503,
      "candles": 7504,
      "twilight": 7505,
      "Garth": 7506,
      "ICH": 7507,
      "Oc": 7508,
      "Tor": 7509,
      "gross": 7510,
      "scold": 7511,
      "thresh": 7512,
      "liver": 7513,
      "conquest": 7514,
      "trag": 7515,
      "propose": 7516,
      "branch": 7517,
      "grain": 7518,
      "greatness": 7519,
      "undertake": 7520,
      "provide": 7521,
      "treatment": 7522,
      "rational": 7523,
      "behaved": 7524,
      "farmer": 7525,
      "Time": 7526,
      "Hamlet": 7527,
      "Ladis": 7528,
      "Temple": 7529,
      "Ap": 7530,
      "gon": 7531,
      "gloves": 7532,
      "repair": 7533,
      "atives": 7534,
      "torious": 7535,
      "moan": 7536,
      "posure": 7537,
      "evna": 7538,
      "smith": 7539,
      "supposing": 7540,
      "fiery": 7541,
      "fatigue": 7542,
      "OTHELLO": 7543,
      "Dev": 7544,
      "craw": 7545,
      "fan": 7546,
      "hut": 7547,
      "sits": 7548,
      "inent": 7549,
      "umbled": 7550,
      "obvious": 7551,
      "marvell": 7552,
      "consisted": 7553,
      "bounds": 7554,
      "Boy": 7555,
      "Justice": 7556,
      "introduce": 7557,
      "cruelty": 7558,
      "lifting": 7559,
      "grieved": 7560,
      "Dulcinea": 7561,
      "Ladislaw": 7562,
      "Mars": 7563,
      "Over": 7564,
      "Sol": 7565,
      "esâ": 7566,
      "whit": 7567,
      "wixt": 7568,
      "suited": 7569,
      "exal": 7570,
      "blin": 7571,
      "community": 7572,
      "maâ": 7573,
      "Room": 7574,
      "staying": 7575,
      "griev": 7576,
      "philosophers": 7577,
      "evolution": 7578,
      "assembled": 7579,
      "GENTLE": 7580,
      "Cat": 7581,
      "bust": 7582,
      "glo": 7583,
      "itations": 7584,
      "whereby": 7585,
      "housekeeper": 7586,
      "contribut": 7587,
      "vial": 7588,
      "claimed": 7589,
      "persist": 7590,
      "avoided": 7591,
      "couch": 7592,
      "million": 7593,
      "protect": 7594,
      "intelligent": 7595,
      "comprehend": 7596,
      "collar": 7597,
      "historical": 7598,
      "escort": 7599,
      "pile": 7600,
      "wherever": 7601,
      "morality": 7602,
      "backward": 7603,
      "sung": 7604,
      "kespeare": 7605,
      "BLE": 7606,
      "Ten": 7607,
      "lac": 7608,
      "rab": 7609,
      "outer": 7610,
      "unwilling": 7611,
      "ifying": 7612,
      "Kingdome": 7613,
      "IAGO": 7614,
      "infant": 7615,
      "despise": 7616,
      "waistcoat": 7617,
      "Bod": 7618,
      "Ellen": 7619,
      "GLO": 7620,
      "MISTRESS": 7621,
      "dang": 7622,
      "fitted": 7623,
      "gul": 7624,
      "ore": 7625,
      "income": 7626,
      "healthy": 7627,
      "esa": 7628,
      "robe": 7629,
      "impressed": 7630,
      "confirm": 7631,
      "wholes": 7632,
      "hook": 7633,
      "Into": 7634,
      "partner": 7635,
      "subdu": 7636,
      "visits": 7637,
      "Stay": 7638,
      "sorrows": 7639,
      "recognised": 7640,
      "breathed": 7641,
      "craft": 7642,
      "WILLI": 7643,
      "Cecil": 7644,
      "DES": 7645,
      "Fal": 7646,
      "FRI": 7647,
      "locks": 7648,
      "copy": 7649,
      "versed": 7650,
      "gravity": 7651,
      "wont": 7652,
      "runs": 7653,
      "sufferings": 7654,
      "Simoun": 7655,
      "Gentlemen": 7656,
      "bewildered": 7657,
      "scandal": 7658,
      "Mistress": 7659,
      "dazz": 7660,
      "MEN": 7661,
      "TY": 7662,
      "Tu": 7663,
      "oe": 7664,
      "beer": 7665,
      "rog": 7666,
      "ria": 7667,
      "exagger": 7668,
      "Whatever": 7669,
      "lawful": 7670,
      "grows": 7671,
      "Charley": 7672,
      "bonnet": 7673,
      "Scott": 7674,
      "neglect": 7675,
      "exhibit": 7676,
      "Nikolay": 7677,
      "WILLIAM": 7678,
      "CASS": 7679,
      "fisher": 7680,
      "inces": 7681,
      "atmo": 7682,
      "spy": 7683,
      "nings": 7684,
      "meanwhile": 7685,
      "legal": 7686,
      "Charlotte": 7687,
      "crowded": 7688,
      "rarely": 7689,
      "Warwick": 7690,
      "district": 7691,
      "BAR": 7692,
      "XII": 7693,
      "thnot": 7694,
      "hay": 7695,
      "chast": 7696,
      "imprison": 7697,
      "pets": 7698,
      "ample": 7699,
      "trap": 7700,
      "aux": 7701,
      "straint": 7702,
      "Arbu": 7703,
      "elements": 7704,
      "modesty": 7705,
      "Maximilian": 7706,
      "Savi": 7707,
      "Arbuthnot": 7708,
      "Aj": 7709,
      "insu": 7710,
      "revi": 7711,
      "novels": 7712,
      "wels": 7713,
      "brood": 7714,
      "surgeon": 7715,
      "soup": 7716,
      "approved": 7717,
      "zeal": 7718,
      "falsehood": 7719,
      "determination": 7720,
      "reserve": 7721,
      "dispute": 7722,
      "Sher": 7723,
      "mould": 7724,
      "sie": 7725,
      "sets": 7726,
      "forgetting": 7727,
      "unnatural": 7728,
      "colored": 7729,
      "ifully": 7730,
      "theirs": 7731,
      "idel": 7732,
      "doorway": 7733,
      "valour": 7734,
      "accused": 7735,
      "doubtful": 7736,
      "volunt": 7737,
      "regarding": 7738,
      "limited": 7739,
      "hostile": 7740,
      "Gi": 7741,
      "Nes": 7742,
      "iate": 7743,
      "sions": 7744,
      "chased": 7745,
      "essie": 7746,
      "brut": 7747,
      "beforehand": 7748,
      "joining": 7749,
      "cutor": 7750,
      "domin": 7751,
      "fifth": 7752,
      "descending": 7753,
      "developed": 7754,
      "Antony": 7755,
      "22": 7756,
      "AG": 7757,
      "Gats": 7758,
      "Lie": 7759,
      "pom": 7760,
      "rags": 7761,
      "waking": 7762,
      "thigh": 7763,
      "abuse": 7764,
      "ambit": 7765,
      "actual": 7766,
      "carriages": 7767,
      "survey": 7768,
      "Stubb": 7769,
      "appropri": 7770,
      "gladly": 7771,
      "arrangement": 7772,
      "Gatsby": 7773,
      "Philoso": 7774,
      "Sever": 7775,
      "bation": 7776,
      "containing": 7777,
      "shrie": 7778,
      "discretion": 7779,
      "umbling": 7780,
      "blank": 7781,
      "serge": 7782,
      "THIR": 7783,
      "hearth": 7784,
      "ONE": 7785,
      "completed": 7786,
      "terrified": 7787,
      "whales": 7788,
      "delicacy": 7789,
      "translated": 7790,
      "enthusi": 7791,
      "Celia": 7792,
      "Telemachus": 7793,
      "Hun": 7794,
      "Size": 7795,
      "cue": 7796,
      "gig": 7797,
      "lane": 7798,
      "ander": 7799,
      "sau": 7800,
      "Hell": 7801,
      "shaken": 7802,
      "ersâ": 7803,
      "respected": 7804,
      "ELIA": 7805,
      "MercÃ": 7806,
      "executed": 7807,
      "resentment": 7808,
      "Middlemarch": 7809,
      "Die": 7810,
      "GRE": 7811,
      "Ob": 7812,
      "Si": 7813,
      "han": 7814,
      "vow": 7815,
      "revel": 7816,
      "rial": 7817,
      "appar": 7818,
      "spec": 7819,
      "Too": 7820,
      "sublime": 7821,
      "skies": 7822,
      "greed": 7823,
      "spectacles": 7824,
      "restore": 7825,
      "fiend": 7826,
      "VasÃ": 7827,
      "Camb": 7828,
      "Port": 7829,
      "Swe": 7830,
      "Water": 7831,
      "fence": 7832,
      "olic": 7833,
      "pho": 7834,
      "insur": 7835,
      "incur": 7836,
      "advers": 7837,
      "prescri": 7838,
      "shouldnâ": 7839,
      "commend": 7840,
      "vols": 7841,
      "vari": 7842,
      "dreamed": 7843,
      "element": 7844,
      "instructions": 7845,
      "suspicious": 7846,
      "UCESTER": 7847,
      "Yea": 7848,
      "igneur": 7849,
      "ANTONY": 7850,
      "Scripture": 7851,
      "fountain": 7852,
      "Tulkinghorn": 7853,
      "threshold": 7854,
      "GLOUCESTER": 7855,
      "Much": 7856,
      "awe": 7857,
      "parent": 7858,
      "moor": 7859,
      "abstr": 7860,
      "justly": 7861,
      "Marry": 7862,
      "parish": 7863,
      "confine": 7864,
      "painting": 7865,
      "Exc": 7866,
      "educated": 7867,
      "attentively": 7868,
      "prejudice": 7869,
      "GHT": 7870,
      "acknowledged": 7871,
      "JULI": 7872,
      "?...": 7873,
      "SU": 7874,
      "bis": 7875,
      "bab": 7876,
      "mates": 7877,
      "infect": 7878,
      "investi": 7879,
      "ano": 7880,
      "artif": 7881,
      "alus": 7882,
      "altar": 7883,
      "withal": 7884,
      "lique": 7885,
      "deem": 7886,
      "essential": 7887,
      "probability": 7888,
      "ornament": 7889,
      "liberal": 7890,
      "lodge": 7891,
      "mirth": 7892,
      "dimin": 7893,
      "enchanted": 7894,
      "problem": 7895,
      "CLE": 7896,
      "bio": 7897,
      "ratt": 7898,
      "rey": 7899,
      "reference": 7900,
      "itute": 7901,
      "accounts": 7902,
      "tile": 7903,
      "scape": 7904,
      "foundation": 7905,
      "curtains": 7906,
      "purchase": 7907,
      "secured": 7908,
      "driver": 7909,
      "neighbours": 7910,
      "gleam": 7911,
      "universe": 7912,
      "marrying": 7913,
      "politeness": 7914,
      "passages": 7915,
      "renewed": 7916,
      "chival": 7917,
      "Ag": 7918,
      "Free": 7919,
      "HÃ": 7920,
      "SA": 7921,
      "sele": 7922,
      "ural": 7923,
      "spear": 7924,
      "cracy": 7925,
      "via": 7926,
      "177": 7927,
      "characteristic": 7928,
      "hasty": 7929,
      "convenience": 7930,
      "encouraged": 7931,
      "Child": 7932,
      "pavement": 7933,
      "Biddy": 7934,
      "DER": 7935,
      "Part": 7936,
      "cattle": 7937,
      "sack": 7938,
      "enabled": 7939,
      "andâ": 7940,
      "hal": 7941,
      "alight": 7942,
      "lya": 7943,
      "femin": 7944,
      "intoler": 7945,
      "division": 7946,
      "momentâ": 7947,
      "fairy": 7948,
      "advancing": 7949,
      "legisl": 7950,
      "GENTLEMAN": 7951,
      "Mus": 7952,
      "San": 7953,
      "Smo": 7954,
      "danced": 7955,
      "ibly": 7956,
      "inex": 7957,
      "chick": 7958,
      "resour": 7959,
      "paign": 7960,
      "gues": 7961,
      "finest": 7962,
      "openly": 7963,
      "promises": 7964,
      "mouths": 7965,
      "potent": 7966,
      "Five": 7967,
      "Lin": 7968,
      "Sep": 7969,
      "eque": 7970,
      "wig": 7971,
      "exchange": 7972,
      "challen": 7973,
      "certainty": 7974,
      "tavern": 7975,
      "surprising": 7976,
      "Queeque": 7977,
      "Presently": 7978,
      "planted": 7979,
      "Silver": 7980,
      "expedition": 7981,
      "Keep": 7982,
      "Ajax": 7983,
      "mend": 7984,
      "praised": 7985,
      "tap": 7986,
      "nets": 7987,
      "elf": 7988,
      "hearty": 7989,
      "giant": 7990,
      "slumber": 7991,
      "restless": 7992,
      "destined": 7993,
      "courtesy": 7994,
      "Brut": 7995,
      "gallery": 7996,
      "Trans": 7997,
      "bells": 7998,
      "learnt": 7999,
      "sighs": 8000,
      "teacher": 8001,
      "reckoned": 8002,
      "moonlight": 8003,
      "issued": 8004,
      "folks": 8005,
      "Shakespeare": 8006,
      "development": 8007,
      "marvellous": 8008,
      "Clif": 8009,
      "Dais": 8010,
      "Fin": 8011,
      "dus": 8012,
      "rhy": 8013,
      "rushing": 8014,
      "renow": 8015,
      "foes": 8016,
      "clay": 8017,
      "repul": 8018,
      "avail": 8019,
      "Châ": 8020,
      "joyful": 8021,
      "shoot": 8022,
      "perial": 8023,
      "harpo": 8024,
      "cordial": 8025,
      "robber": 8026,
      "failure": 8027,
      "mourning": 8028,
      "Beauchamp": 8029,
      "atmosphere": 8030,
      "JULIET": 8031,
      "Clifford": 8032,
      "Mort": 8033,
      "Te": 8034,
      "sailed": 8035,
      "ico": 8036,
      "amâ": 8037,
      "upset": 8038,
      "hoarse": 8039,
      "raft": 8040,
      "obviously": 8041,
      "Enjol": 8042,
      "INA": 8043,
      "eason": 8044,
      "memories": 8045,
      "philosoph": 8046,
      "recollect": 8047,
      "inquiries": 8048,
      "neighborhood": 8049,
      "Republic": 8050,
      "Esther": 8051,
      "abruptly": 8052,
      "Caroline": 8053,
      "Enjolras": 8054,
      "Ken": 8055,
      "SY": 8056,
      "_C": 8057,
      "halt": 8058,
      "sters": 8059,
      "rod": 8060,
      "feit": 8061,
      "endous": 8062,
      "pressure": 8063,
      "specul": 8064,
      "mayor": 8065,
      "scrap": 8066,
      "begging": 8067,
      "turnâ": 8068,
      "cru": 8069,
      "bodily": 8070,
      "hunt": 8071,
      "college": 8072,
      "yrac": 8073,
      "COM": 8074,
      "YOR": 8075,
      "batter": 8076,
      "nun": 8077,
      "thren": 8078,
      "reven": 8079,
      "wasted": 8080,
      "rian": 8081,
      "uncomfortable": 8082,
      "cture": 8083,
      "perceiving": 8084,
      "Hel": 8085,
      "eless": 8086,
      "thoughtful": 8087,
      "corners": 8088,
      "blos": 8089,
      "placing": 8090,
      "judges": 8091,
      "footsteps": 8092,
      "velvet": 8093,
      "instruments": 8094,
      "invention": 8095,
      "faculties": 8096,
      "discipl": 8097,
      "bachelor": 8098,
      "fen": 8099,
      "laz": 8100,
      "uity": 8101,
      "is_": 8102,
      "seam": 8103,
      "seigneur": 8104,
      "châ": 8105,
      "abhor": 8106,
      "offend": 8107,
      "scor": 8108,
      "closer": 8109,
      "engers": 8110,
      "trifle": 8111,
      "application": 8112,
      "Const": 8113,
      "Englishman": 8114,
      "flee": 8115,
      "create": 8116,
      "practised": 8117,
      "Grecian": 8118,
      "recommended": 8119,
      "forbidden": 8120,
      "comrades": 8121,
      "ceptible": 8122,
      "Smallweed": 8123,
      "Ba": 8124,
      "Sur": 8125,
      "_you": 8126,
      "bush": 8127,
      "gers": 8128,
      "link": 8129,
      "push": 8130,
      "pages": 8131,
      "leagues": 8132,
      "root": 8133,
      "ghast": 8134,
      "sul": 8135,
      "quity": 8136,
      "glimp": 8137,
      "Assem": 8138,
      "Marg": 8139,
      "corpor": 8140,
      "Robert": 8141,
      "nails": 8142,
      "sweat": 8143,
      "fearing": 8144,
      "remembering": 8145,
      "Sect": 8146,
      "elev": 8147,
      "elect": 8148,
      "guarded": 8149,
      "warmly": 8150,
      "Baron": 8151,
      "witnesses": 8152,
      "WHICH": 8153,
      "drowned": 8154,
      "Novelist": 8155,
      "glimpse": 8156,
      "Mord": 8157,
      "Pha": 8158,
      "Pearl": 8159,
      "creet": 8160,
      "pious": 8161,
      "usur": 8162,
      "inci": 8163,
      "hap": 8164,
      "sot": 8165,
      "local": 8166,
      "goose": 8167,
      "composition": 8168,
      "thereof": 8169,
      "dismal": 8170,
      "specially": 8171,
      "maybe": 8172,
      "ridge": 8173,
      "anxiously": 8174,
      "classes": 8175,
      "increasing": 8176,
      "stockings": 8177,
      "Watson": 8178,
      "29": 8179,
      "WAR": 8180,
      "equi": 8181,
      "fret": 8182,
      "mouse": 8183,
      "veh": 8184,
      "veins": 8185,
      "improved": 8186,
      "agle": 8187,
      "teth": 8188,
      "veness": 8189,
      "boso": 8190,
      "scre": 8191,
      "screw": 8192,
      "cratic": 8193,
      "covering": 8194,
      "signed": 8195,
      "filling": 8196,
      "crimson": 8197,
      "Basili": 8198,
      "struggling": 8199,
      "Gab": 8200,
      "Tz": 8201,
      "bast": 8202,
      "bud": 8203,
      "ebe": 8204,
      "hanged": 8205,
      "lent": 8206,
      "scient": 8207,
      "vap": 8208,
      "ripe": 8209,
      "wealthy": 8210,
      "model": 8211,
      "exasper": 8212,
      "slender": 8213,
      "corrid": 8214,
      "joys": 8215,
      "eyebrows": 8216,
      "Lawes": 8217,
      "fashionable": 8218,
      "sharply": 8219,
      "consented": 8220,
      "Thanks": 8221,
      "Between": 8222,
      "anchor": 8223,
      "tossed": 8224,
      "magistrate": 8225,
      "Saviour": 8226,
      "Sin": 8227,
      "VE": 8228,
      "VAL": 8229,
      "mask": 8230,
      "idly": 8231,
      "lots": 8232,
      "comfor": 8233,
      "illes": 8234,
      "blew": 8235,
      "hinder": 8236,
      "sixteen": 8237,
      "Luci": 8238,
      "enemyâ": 8239,
      "reverend": 8240,
      "communicated": 8241,
      "procession": 8242,
      "parlour": 8243,
      "Bu": 8244,
      "Jaggers": 8245,
      "dried": 8246,
      "job": 8247,
      "wag": 8248,
      "©,": 8249,
      "meek": 8250,
      "stare": 8251,
      "los": 8252,
      "demonstr": 8253,
      "amusing": 8254,
      "sheets": 8255,
      "affirm": 8256,
      "ouncing": 8257,
      "blown": 8258,
      "stolen": 8259,
      "paired": 8260,
      "compare": 8261,
      "worldâ": 8262,
      "painter": 8263,
      "petty": 8264,
      "Command": 8265,
      "atively": 8266,
      "trot": 8267,
      "compliments": 8268,
      "arrangements": 8269,
      "British": 8270,
      "PAGE": 8271,
      "nski": 8272,
      "40": 8273,
      "XI": 8274,
      "dale": 8275,
      "lunch": 8276,
      "mart": 8277,
      "uated": 8278,
      "inspe": 8279,
      "rebell": 8280,
      "arrest": 8281,
      "impe": 8282,
      "sugar": 8283,
      "us_": 8284,
      "exchanged": 8285,
      "cile": 8286,
      "brute": 8287,
      "intently": 8288,
      "intercourse": 8289,
      "skull": 8290,
      "smaller": 8291,
      "images": 8292,
      "satisfactory": 8293,
      "neighbors": 8294,
      "luxury": 8295,
      "TzÅ": 8296,
      "Revolution": 8297,
      "Stop": 8298,
      "Tow": 8299,
      "stim": 8300,
      "romance": 8301,
      "tified": 8302,
      "external": 8303,
      "blush": 8304,
      "scrut": 8305,
      "friendâ": 8306,
      "childâ": 8307,
      "region": 8308,
      "countries": 8309,
      "States": 8310,
      "eloquence": 8311,
      "Surely": 8312,
      "City": 8313,
      "cats": 8314,
      "mph": 8315,
      "tones": 8316,
      "uals": 8317,
      "orche": 8318,
      "accommod": 8319,
      "trunk": 8320,
      "antin": 8321,
      "astro": 8322,
      "closet": 8323,
      "angels": 8324,
      "worldly": 8325,
      "countâ": 8326,
      "itudes": 8327,
      "dropping": 8328,
      "temptation": 8329,
      "examining": 8330,
      "dreaded": 8331,
      "killing": 8332,
      "assume": 8333,
      "superst": 8334,
      "announce": 8335,
      "attractive": 8336,
      "crazy": 8337,
      "crimes": 8338,
      "fruits": 8339,
      "published": 8340,
      "CT": 8341,
      "Rob": 8342,
      "Reason": 8343,
      "WITH": 8344,
      "XL": 8345,
      "awhile": 8346,
      "enlight": 8347,
      "mee": 8348,
      "melt": 8349,
      "impet": 8350,
      "urity": 8351,
      "agent": 8352,
      "serene": 8353,
      "embro": 8354,
      "Kingâ": 8355,
      "176": 8356,
      "strengthen": 8357,
      "reported": 8358,
      "graphy": 8359,
      "Miner": 8360,
      "faculty": 8361,
      "Government": 8362,
      "overwhelmed": 8363,
      "gossip": 8364,
      "hazard": 8365,
      "Mordaunt": 8366,
      "Dan": 8367,
      "LIN": 8368,
      "Mull": 8369,
      "Ri": 8370,
      "pilgrim": 8371,
      "raged": 8372,
      "tour": 8373,
      "rection": 8374,
      "ceiling": 8375,
      "lyn": 8376,
      "blushed": 8377,
      "flowed": 8378,
      "monk": 8379,
      "chains": 8380,
      "formid": 8381,
      "warn": 8382,
      "seconds": 8383,
      "secretary": 8384,
      "succession": 8385,
      "animated": 8386,
      "Lyn": 8387,
      "Laws": 8388,
      "miracle": 8389,
      "rubbed": 8390,
      "Minister": 8391,
      "----------------": 8392,
      "bundle": 8393,
      "campaign": 8394,
      "Gillenorm": 8395,
      "scoundrel": 8396,
      "Gro": 8397,
      "Sa": 8398,
      "pence": 8399,
      "zi": 8400,
      "concent": 8401,
      "perish": 8402,
      "trim": 8403,
      "boot": 8404,
      "anyway": 8405,
      "glances": 8406,
      "prec": 8407,
      "monu": 8408,
      "jewels": 8409,
      "dearly": 8410,
      "careless": 8411,
      "Relig": 8412,
      "Frenchman": 8413,
      "garments": 8414,
      "professor": 8415,
      "July": 8416,
      "solemnly": 8417,
      "stammered": 8418,
      "Bagnet": 8419,
      "ecstasy": 8420,
      "DIO": 8421,
      "Mina": 8422,
      "Squ": 8423,
      "bits": 8424,
      "mun": 8425,
      "unction": 8426,
      "usive": 8427,
      "consp": 8428,
      "docu": 8429,
      "blan": 8430,
      "cheap": 8431,
      "waved": 8432,
      "block": 8433,
      "smallest": 8434,
      "terribly": 8435,
      "URSE": 8436,
      "fashioned": 8437,
      "bitterness": 8438,
      "vigorous": 8439,
      "comrade": 8440,
      "draught": 8441,
      "commenced": 8442,
      "Estella": 8443,
      "Anat": 8444,
      "Ru": 8445,
      "theo": 8446,
      "ascertain": 8447,
      "undoubted": 8448,
      "subsequ": 8449,
      "Arch": 8450,
      "horseback": 8451,
      "Lives": 8452,
      "peaceful": 8453,
      "frost": 8454,
      "crowns": 8455,
      "severely": 8456,
      "Simon": 8457,
      "HORA": 8458,
      "Mamma": 8459,
      "Sou": 8460,
      "YS": 8461,
      "pac": 8462,
      "sends": 8463,
      "restrained": 8464,
      "requires": 8465,
      "asion": 8466,
      "ultim": 8467,
      "spur": 8468,
      "courty": 8469,
      "footman": 8470,
      "catching": 8471,
      "Dublin": 8472,
      "attempts": 8473,
      "Seeing": 8474,
      "favorite": 8475,
      "nesse": 8476,
      "presume": 8477,
      "formidable": 8478,
      "Caddy": 8479,
      "Eh": 8480,
      "Sid": 8481,
      "Tri": 8482,
      "bite": 8483,
      "lain": 8484,
      "eration": 8485,
      "halted": 8486,
      "seats": 8487,
      "stret": 8488,
      "lian": 8489,
      "motives": 8490,
      "abor": 8491,
      "shal": 8492,
      "intox": 8493,
      "lett": 8494,
      "ringing": 8495,
      "Laurence": 8496,
      "boxes": 8497,
      "Christians": 8498,
      "hospital": 8499,
      "virgin": 8500,
      "Philip": 8501,
      "subdued": 8502,
      "Sweet": 8503,
      "Haw": 8504,
      "Mine": 8505,
      "fist": 8506,
      "frown": 8507,
      "tast": 8508,
      "aroused": 8509,
      "lix": 8510,
      "ica": 8511,
      "induced": 8512,
      "themâ": 8513,
      "displayed": 8514,
      "cken": 8515,
      "positive": 8516,
      "Moor": 8517,
      "vanqu": 8518,
      "missing": 8519,
      "Liber": 8520,
      "obligation": 8521,
      "relieve": 8522,
      "results": 8523,
      "conquered": 8524,
      "conveyed": 8525,
      "mournful": 8526,
      "Authority": 8527,
      "Ere": 8528,
      "Lav": 8529,
      "Roc": 8530,
      "lur": 8531,
      "rud": 8532,
      "uary": 8533,
      "alle": 8534,
      "poster": 8535,
      "manly": 8536,
      "print": 8537,
      "ciences": 8538,
      "oughby": 8539,
      "spell": 8540,
      "counting": 8541,
      "attending": 8542,
      "natures": 8543,
      "crib": 8544,
      "realized": 8545,
      "Willoughby": 8546,
      "Leave": 8547,
      "banished": 8548,
      "Accord": 8549,
      "breeze": 8550,
      "refrain": 8551,
      "Minerva": 8552,
      "FA": 8553,
      "thar": 8554,
      "initi": 8555,
      "celes": 8556,
      "liable": 8557,
      "shower": 8558,
      "doâ": 8559,
      "owned": 8560,
      "discharged": 8561,
      "redou": 8562,
      "assass": 8563,
      "bleeding": 8564,
      "lifeâ": 8565,
      "happier": 8566,
      "shocked": 8567,
      "bands": 8568,
      "fourteen": 8569,
      "pettic": 8570,
      "dreaming": 8571,
      "conductor": 8572,
      "collection": 8573,
      "sinking": 8574,
      "embarrassed": 8575,
      "Catholic": 8576,
      "21": 8577,
      "Kings": 8578,
      "Mi": 8579,
      "Scare": 8580,
      "aire": 8581,
      "las": 8582,
      "nour": 8583,
      "pang": 8584,
      "wart": 8585,
      "zig": 8586,
      "aments": 8587,
      "ardent": 8588,
      "okes": 8589,
      "Hear": 8590,
      "disper": 8591,
      "arya": 8592,
      "newly": 8593,
      "interf": 8594,
      "brethren": 8595,
      "harness": 8596,
      "EDWARD": 8597,
      "accomplish": 8598,
      "involved": 8599,
      "_you_": 8600,
      "celestial": 8601,
      "CU": 8602,
      "Emp": 8603,
      "MESS": 8604,
      "iard": 8605,
      "oo": 8606,
      "tz": 8607,
      "uri": 8608,
      "referred": 8609,
      "unworthy": 8610,
      "outs": 8611,
      "traces": 8612,
      "plum": 8613,
      "plague": 8614,
      "enses": 8615,
      "formal": 8616,
      "valid": 8617,
      "shipâ": 8618,
      "flock": 8619,
      "demands": 8620,
      "washing": 8621,
      "knave": 8622,
      "preparation": 8623,
      "Florence": 8624,
      "sergeant": 8625,
      "Brutus": 8626,
      "pettico": 8627,
      "!--": 8628,
      "Apost": 8629,
      "Hare": 8630,
      "cake": 8631,
      "jail": 8632,
      "arte": 8633,
      "llers": 8634,
      "aloft": 8635,
      "herd": 8636,
      "noticing": 8637,
      "hadst": 8638,
      "sustain": 8639,
      "sails": 8640,
      "shrew": 8641,
      "armies": 8642,
      "slaughter": 8643,
      "parson": 8644,
      "forming": 8645,
      "exciting": 8646,
      "spectacle": 8647,
      "sensations": 8648,
      "operation": 8649,
      "moderate": 8650,
      "rubbing": 8651,
      "indicated": 8652,
      "resistance": 8653,
      "shuddered": 8654,
      "brandy": 8655,
      "frowning": 8656,
      "HORATIO": 8657,
      "courtyard": 8658,
      "Scarecrow": 8659,
      "Day": 8660,
      "JA": 8661,
      "_L": 8662,
      "ingale": 8663,
      "iche": 8664,
      "coal": 8665,
      "worried": 8666,
      "prover": 8667,
      "lesse": 8668,
      "steward": 8669,
      "questioned": 8670,
      "penit": 8671,
      "porch": 8672,
      "Germany": 8673,
      "inevitable": 8674,
      "Gregor": 8675,
      "Cardinal": 8676,
      "scientific": 8677,
      "Six": 8678,
      "Ya": 8679,
      "_T": 8680,
      "mute": 8681,
      "anter": 8682,
      "haunted": 8683,
      "advert": 8684,
      "demon": 8685,
      "persec": 8686,
      "ulations": 8687,
      "angled": 8688,
      "readers": 8689,
      "desol": 8690,
      "glowing": 8691,
      "torney": 8692,
      "Attend": 8693,
      "Doth": 8694,
      "statement": 8695,
      "despised": 8696,
      "convict": 8697,
      "rejoice": 8698,
      "Satur": 8699,
      "distracted": 8700,
      "irresistible": 8701,
      "Excuse": 8702,
      "Anatole": 8703,
      "TEN": 8704,
      "_History": 8705,
      "emotions": 8706,
      "jer": 8707,
      "nap": 8708,
      "vas": 8709,
      "hail": 8710,
      "entit": 8711,
      "liken": 8712,
      "sooth": 8713,
      "uncommon": 8714,
      "himselfe": 8715,
      "display": 8716,
      "blowing": 8717,
      "brisk": 8718,
      "tember": 8719,
      "waving": 8720,
      "boyâ": 8721,
      "cuit": 8722,
      "expressing": 8723,
      "pretence": 8724,
      "continual": 8725,
      "stricken": 8726,
      "secretly": 8727,
      "Barry": 8728,
      "establishment": 8729,
      "steadily": 8730,
      "alogue": 8731,
      "Palace": 8732,
      "desirous": 8733,
      "management": 8734,
      "whirl": 8735,
      "Panza": 8736,
      "Frankland": 8737,
      "privilege": 8738,
      "JACK": 8739,
      "Page": 8740,
      "RAC": 8741,
      "Wu": 8742,
      "dined": 8743,
      "tha": 8744,
      "thie": 8745,
      "seizing": 8746,
      "distrust": 8747,
      "landed": 8748,
      "autumn": 8749,
      "nail": 8750,
      "fund": 8751,
      "snuff": 8752,
      "damned": 8753,
      "individuals": 8754,
      "significance": 8755,
      "attachment": 8756,
      "haughty": 8757,
      "wholesome": 8758,
      "Gabriel": 8759,
      "FE": 8760,
      "Hay": 8761,
      "vable": 8762,
      "tool": 8763,
      "loo": 8764,
      "tedious": 8765,
      "cheese": 8766,
      "Belie": 8767,
      "harder": 8768,
      "reasoning": 8769,
      "floating": 8770,
      "declaration": 8771,
      "stirring": 8772,
      "awaiting": 8773,
      "assembly": 8774,
      "glittering": 8775,
      "Margaret": 8776,
      "Basilio": 8777,
      "Bra": 8778,
      "Scr": 8779,
      "WO": 8780,
      "aristo": 8781,
      "wiped": 8782,
      "sobs": 8783,
      "retained": 8784,
      "Nobody": 8785,
      "loveâ": 8786,
      "Soci": 8787,
      "joint": 8788,
      "ANTI": 8789,
      "talents": 8790,
      "mathem": 8791,
      "chariot": 8792,
      "tricks": 8793,
      "signif": 8794,
      "volume": 8795,
      "necessarily": 8796,
      "springs": 8797,
      "sadness": 8798,
      "determine": 8799,
      "shouts": 8800,
      "boldly": 8801,
      "distressed": 8802,
      "ascend": 8803,
      "Earl": 8804,
      "methods": 8805,
      "Cur": 8806,
      "Dick": 8807,
      "bÃ": 8808,
      "jug": 8809,
      "lav": 8810,
      "rays": 8811,
      "wreck": 8812,
      "throb": 8813,
      "token": 8814,
      "asping": 8815,
      "haw": 8816,
      "oman": 8817,
      "expressions": 8818,
      "burgh": 8819,
      "declined": 8820,
      "writers": 8821,
      "conclude": 8822,
      "Patro": 8823,
      "narrative": 8824,
      "propriety": 8825,
      "puzzled": 8826,
      "Queequeg": 8827,
      "Gillenormand": 8828,
      "Ali": 8829,
      "OED": 8830,
      "Sign": 8831,
      "faded": 8832,
      "ua": 8833,
      "infirm": 8834,
      "heaps": 8835,
      "nobility": 8836,
      "riches": 8837,
      "logi": 8838,
      "prop": 8839,
      "cili": 8840,
      "facing": 8841,
      "resolve": 8842,
      "occasioned": 8843,
      "palm": 8844,
      "separation": 8845,
      "thrice": 8846,
      "dramatic": 8847,
      "darted": 8848,
      "Miller": 8849,
      "IPUS": 8850,
      "cavalry": 8851,
      "Divine": 8852,
      "SERVANT": 8853,
      "chivalry": 8854,
      "OEDIPUS": 8855,
      "Cran": 8856,
      "Jona": 8857,
      "culture": 8858,
      "gations": 8859,
      "vive": 8860,
      "toe": 8861,
      "allâ": 8862,
      "unities": 8863,
      "deemed": 8864,
      "ested": 8865,
      "worm": 8866,
      "inking": 8867,
      "hired": 8868,
      "replies": 8869,
      "carp": 8870,
      "paint": 8871,
      "numerable": 8872,
      "forthwith": 8873,
      "Monseigneur": 8874,
      "Georgi": 8875,
      "despite": 8876,
      "pistols": 8877,
      "VOLIO": 8878,
      "Jonathan": 8879,
      "OU": 8880,
      "fren": 8881,
      "impole": 8882,
      "rient": 8883,
      "noted": 8884,
      "loa": 8885,
      "suck": 8886,
      "usal": 8887,
      "icated": 8888,
      "converse": 8889,
      "tius": 8890,
      "clut": 8891,
      "temple": 8892,
      "CHAR": 8893,
      "rises": 8894,
      "concerns": 8895,
      "rapture": 8896,
      "mature": 8897,
      "testim": 8898,
      "Porfir": 8899,
      "contemplation": 8900,
      "abode": 8901,
      "searching": 8902,
      "inherit": 8903,
      "envelope": 8904,
      "YORK": 8905,
      "Hur": 8906,
      "NURSE": 8907,
      "Pic": 8908,
      "Scar": 8909,
      "arc": 8910,
      "hable": 8911,
      "ston": 8912,
      "rip": 8913,
      "defin": 8914,
      "composure": 8915,
      "plor": 8916,
      "discour": 8917,
      "attributed": 8918,
      "licy": 8919,
      "Whoâ": 8920,
      "patched": 8921,
      "syll": 8922,
      "shades": 8923,
      "TIMON": 8924,
      "wilder": 8925,
      "bottles": 8926,
      "supplied": 8927,
      "ILIA": 8928,
      "breathless": 8929,
      "energet": 8930,
      "folds": 8931,
      "Strap": 8932,
      "Renal": 8933,
      "gathering": 8934,
      "released": 8935,
      "Skimpole": 8936,
      "ambitious": 8937,
      "Cler": 8938,
      "Darya": 8939,
      "dre": 8940,
      "hen": 8941,
      "lings": 8942,
      "vag": 8943,
      "wond": 8944,
      "ashore": 8945,
      "riga": 8946,
      "welf": 8947,
      "ques": 8948,
      "nightâ": 8949,
      "checked": 8950,
      "attribut": 8951,
      "wanton": 8952,
      "ministr": 8953,
      "parti": 8954,
      "viv": 8955,
      "tribut": 8956,
      "bounded": 8957,
      "furnish": 8958,
      "swallow": 8959,
      "Kolya": 8960,
      "extremity": 8961,
      "tick": 8962,
      "thic": 8963,
      "liking": 8964,
      "genial": 8965,
      "bushes": 8966,
      "Dead": 8967,
      "humor": 8968,
      "175": 8969,
      "wildly": 8970,
      "growth": 8971,
      "sombre": 8972,
      "introduction": 8973,
      "suspicions": 8974,
      "eggs": 8975,
      "industry": 8976,
      "exclamation": 8977,
      "Patrocl": 8978,
      "CÃ": 8979,
      "Pom": 8980,
      "Svid": 8981,
      "_E": 8982,
      "pushing": 8983,
      "Ãª": 8984,
      "hered": 8985,
      "quer": 8986,
      "residence": 8987,
      "pling": 8988,
      "igno": 8989,
      "anging": 8990,
      "flashed": 8991,
      "parce": 8992,
      "formation": 8993,
      "EST": 8994,
      "hopeless": 8995,
      "sprung": 8996,
      "softened": 8997,
      "hammer": 8998,
      "balance": 8999,
      "Ferdin": 9000,
      "threatening": 9001,
      "impertin": 9002,
      "pierced": 9003,
      "leaped": 9004,
      "correspondence": 9005,
      "Collins": 9006,
      "snatched": 9007,
      "MACBETH": 9008,
      "rigaÃ": 9009,
      "SvidrigaÃ": 9010,
      "Caval": 9011,
      "Happ": 9012,
      "Wick": 9013,
      "ZA": 9014,
      "bby": 9015,
      "cities": 9016,
      "dame": 9017,
      "vine": 9018,
      "encies": 9019,
      "hee": 9020,
      ";": 9021,
      "forbear": 9022,
      "perchance": 9023,
      "tract": 9024,
      "apsed": 9025,
      "prosec": 9026,
      "didn": 9027,
      "earn": 9028,
      "sio": 9029,
      "guided": 9030,
      "contact": 9031,
      "Beebe": 9032,
      "warned": 9033,
      "LEAR": 9034,
      "empire": 9035,
      "Debray": 9036,
      "daughterâ": 9037,
      "schools": 9038,
      "magic": 9039,
      "islands": 9040,
      "India": 9041,
      "audible": 9042,
      "MARGAR": 9043,
      "responded": 9044,
      "adored": 9045,
      "desirable": 9046,
      "conjecture": 9047,
      "encountered": 9048,
      "September": 9049,
      "likeness": 9050,
      "Apri": 9051,
      "Bre": 9052,
      "Zo": 9053,
      "baw": 9054,
      "gap": 9055,
      "inante": 9056,
      "converted": 9057,
      "indes": 9058,
      "dismissed": 9059,
      "glim": 9060,
      "sibly": 9061,
      "county": 9062,
      "carpet": 9063,
      "OLA": 9064,
      "concert": 9065,
      "mortality": 9066,
      "abyss": 9067,
      "dollars": 9068,
      "fantastic": 9069,
      "shillings": 9070,
      "enterprise": 9071,
      "idelity": 9072,
      "embroid": 9073,
      "Cus": 9074,
      "MOR": 9075,
      "OPAT": 9076,
      "Sus": 9077,
      "cad": 9078,
      "sings": 9079,
      ".": 9080,
      "shun": 9081,
      "ulating": 9082,
      "offers": 9083,
      "scale": 9084,
      "backs": 9085,
      "breed": 9086,
      "ENGER": 9087,
      "INIUS": 9088,
      "blot": 9089,
      "gallop": 9090,
      "sickness": 9091,
      "measured": 9092,
      "phenomen": 9093,
      "screamed": 9094,
      "vexed": 9095,
      "adjut": 9096,
      "Truth": 9097,
      "involuntarily": 9098,
      "CITI": 9099,
      "CLEOPAT": 9100,
      "Rocinante": 9101,
      "CLEOPATRA": 9102,
      "Crom": 9103,
      "KA": 9104,
      "Met": 9105,
      "Pen": 9106,
      "Var": 9107,
      "Wol": 9108,
      "haired": 9109,
      "rogue": 9110,
      "unnecessary": 9111,
      "abomin": 9112,
      "irect": 9113,
      "mortif": 9114,
      "jolly": 9115,
      "ruff": 9116,
      "dresses": 9117,
      "kisses": 9118,
      "Jelly": 9119,
      "harbour": 9120,
      "mortals": 9121,
      "bald": 9122,
      "intimacy": 9123,
      "Better": 9124,
      "drama": 9125,
      "responsible": 9126,
      "CAPU": 9127,
      "Assembly": 9128,
      "corridor": 9129,
      "Py": 9130,
      "XIV": 9131,
      "_f": 9132,
      "boun": 9133,
      "stamp": 9134,
      "behave": 9135,
      "icked": 9136,
      "nowâ": 9137,
      "endured": 9138,
      "everlasting": 9139,
      "descent": 9140,
      "breach": 9141,
      "eff": 9142,
      "landing": 9143,
      "skil": 9144,
      "shooting": 9145,
      "journal": 9146,
      "limit": 9147,
      "writes": 9148,
      "paths": 9149,
      "acquaintances": 9150,
      "transp": 9151,
      "invented": 9152,
      "tranquil": 9153,
      "tragic": 9154,
      "pomp": 9155,
      "Saturday": 9156,
      "Society": 9157,
      "MARGARET": 9158,
      "Jellyby": 9159,
      "Person": 9160,
      "bass": 9161,
      "nas": 9162,
      "sland": 9163,
      "theme": 9164,
      "tee": 9165,
      "brim": 9166,
      "temples": 9167,
      "severity": 9168,
      "governess": 9169,
      "wrongs": 9170,
      "agreement": 9171,
      "labours": 9172,
      "Farebrother": 9173,
      "tutor": 9174,
      "vocation": 9175,
      "sincerely": 9176,
      "shift": 9177,
      "hospitality": 9178,
      "Daisy": 9179,
      "April": 9180,
      "LAN": 9181,
      "Pardon": 9182,
      "Winter": 9183,
      "ZEN": 9184,
      "ean": 9185,
      "fable": 9186,
      "ju": 9187,
      "pip": 9188,
      "upt": 9189,
      "prow": 9190,
      "spared": 9191,
      "inker": 9192,
      "serpent": 9193,
      "betro": 9194,
      "youngest": 9195,
      "relax": 9196,
      "Island": 9197,
      "ALGER": 9198,
      "OLK": 9199,
      "squad": 9200,
      "Lydi": 9201,
      "lodged": 9202,
      "roots": 9203,
      "debts": 9204,
      "comprehensible": 9205,
      "reveal": 9206,
      "reckoning": 9207,
      "eminence": 9208,
      "ietz": 9209,
      "panting": 9210,
      "Octo": 9211,
      "SYRAC": 9212,
      "MESSENGER": 9213,
      "CITIZEN": 9214,
      "Cromwell": 9215,
      "ALGERNON": 9216,
      "SYRACUSE": 9217,
      "BR": 9218,
      "Da": 9219,
      "Fantine": 9220,
      "Gold": 9221,
      "aur": 9222,
      "eter": 9223,
      "jar": 9224,
      "oars": 9225,
      "innumerable": 9226,
      "anni": 9227,
      "rejected": 9228,
      "stated": 9229,
      "chor": 9230,
      "sag": 9231,
      "whoever": 9232,
      "ousins": 9233,
      "induce": 9234,
      "commer": 9235,
      "venerable": 9236,
      "anotherâ": 9237,
      "hesitating": 9238,
      "Lords": 9239,
      "studying": 9240,
      "sweetness": 9241,
      "authorities": 9242,
      "impressions": 9243,
      "devour": 9244,
      "indignant": 9245,
      "awaited": 9246,
      "weapons": 9247,
      "beams": 9248,
      "BAST": 9249,
      "October": 9250,
      "Jam": 9251,
      "Pont": 9252,
      "Summ": 9253,
      "daw": 9254,
      "fitting": 9255,
      "ki": 9256,
      "mitted": 9257,
      "oner": 9258,
      "ington": 9259,
      "metal": 9260,
      "chanced": 9261,
      "notions": 9262,
      "actors": 9263,
      "icip": 9264,
      "Inst": 9265,
      "contributed": 9266,
      "chal": 9267,
      "winding": 9268,
      "conflict": 9269,
      "respectful": 9270,
      "drift": 9271,
      "breaks": 9272,
      "cheerfully": 9273,
      "critical": 9274,
      "European": 9275,
      "afforded": 9276,
      "Turk": 9277,
      "multip": 9278,
      "Half": 9279,
      "ROSALIND": 9280,
      "Porfiry": 9281,
      "Bad": 9282,
      "Fon": 9283,
      "Hush": 9284,
      "Kat": 9285,
      "Kur": 9286,
      "_H": 9287,
      "cod": 9288,
      "vre": 9289,
      "wert": 9290,
      "itably": 9291,
      "icy": 9292,
      "shared": 9293,
      "cling": 9294,
      "bron": 9295,
      "gling": 9296,
      "serving": 9297,
      "joyou": 9298,
      "helping": 9299,
      "dreadfully": 9300,
      "Place": 9301,
      "impatiently": 9302,
      "unconsciously": 9303,
      "contrived": 9304,
      "eminent": 9305,
      "ragged": 9306,
      "shrill": 9307,
      "annoyed": 9308,
      "trumpet": 9309,
      "experiment": 9310,
      "achieve": 9311,
      "Bened": 9312,
      "Dam": 9313,
      "Dav": 9314,
      "Jacqu": 9315,
      "Sen": 9316,
      "WICK": 9317,
      "bars": 9318,
      "eches": 9319,
      "kers": 9320,
      "mou": 9321,
      "scept": 9322,
      "tasted": 9323,
      "stately": 9324,
      "imitation": 9325,
      "alling": 9326,
      "upwards": 9327,
      "blushing": 9328,
      "clad": 9329,
      "ignant": 9330,
      "cerity": 9331,
      "attering": 9332,
      "prime": 9333,
      "drawer": 9334,
      "calam": 9335,
      "emphas": 9336,
      "province": 9337,
      "limits": 9338,
      "rulers": 9339,
      "Wilson": 9340,
      "vessels": 9341,
      "unexpectedly": 9342,
      "Venus": 9343,
      "sanct": 9344,
      "seventy": 9345,
      "THIRD": 9346,
      "intolerable": 9347,
      "Wickham": 9348,
      "CAPULET": 9349,
      ",[": 9350,
      "Lot": 9351,
      "Open": 9352,
      "Rak": 9353,
      "gence": 9354,
      "uz": 9355,
      "inte": 9356,
      "confounded": 9357,
      "compass": 9358,
      "aks": 9359,
      "spending": 9360,
      "courte": 9361,
      "righteous": 9362,
      "Behold": 9363,
      "majest": 9364,
      "director": 9365,
      "Letters": 9366,
      "approbation": 9367,
      "depends": 9368,
      "bowing": 9369,
      "dignified": 9370,
      "exhaust": 9371,
      "HOST": 9372,
      "Suppose": 9373,
      "swiftly": 9374,
      "tranquill": 9375,
      "borrowed": 9376,
      "jacket": 9377,
      "Starbuck": 9378,
      "tidings": 9379,
      "pattern": 9380,
      "holiday": 9381,
      "Religion": 9382,
      "IMO": 9383,
      "Sac": 9384,
      "_B": 9385,
      "gins": 9386,
      "lass": 9387,
      "races": 9388,
      "onto": 9389,
      "enable": 9390,
      "welt": 9391,
      "eteen": 9392,
      "mann": 9393,
      "quod": 9394,
      "endless": 9395,
      "tooth": 9396,
      "Mark": 9397,
      "CHIO": 9398,
      "Arab": 9399,
      "centuries": 9400,
      "circles": 9401,
      "bowl": 9402,
      "Brand": 9403,
      "lovâ": 9404,
      "aptist": 9405,
      "Jennings": 9406,
      "comforted": 9407,
      "Ferdinand": 9408,
      "Rakit": 9409,
      "Creat": 9410,
      "Ga": 9411,
      "XVIII": 9412,
      "tact": 9413,
      "zo": 9414,
      "infl": 9415,
      "replaced": 9416,
      "chop": 9417,
      "dece": 9418,
      "trades": 9419,
      "undertaking": 9420,
      "heartâ": 9421,
      "purity": 9422,
      "relative": 9423,
      "needle": 9424,
      "naturall": 9425,
      "doctorâ": 9426,
      "fraud": 9427,
      "communicate": 9428,
      "mixture": 9429,
      "preparations": 9430,
      "indulged": 9431,
      "climbed": 9432,
      "esteemed": 9433,
[...]
